#version: 0.2
Ġ t
Ġ a
h e
i n
Ġ s
r e
Ġ w
Ġt he
o u
o n
h a
Ġ b
e r
i t
in g
Ġ m
Ġ c
Ġ I
i s
n d
Ġ f
o r
Ġ p
Ġt o
Ġ d
l l
e s
Ġ o
e n
Ġ l
Ġ g
a n
e d
Ġ y
Ġa nd
ha t
s t
Ġ n
Ġ in
a t
Ġy ou
a r
Ġo f
o m
l e
v e
Ġb e
o t
Ġ it
Ġ ha
Ġ e
Ġ is
Ġt h
i c
a s
Ġt hat
o w
a y
a l
e t
Ġ on
Ġ re
Ġ h
Ġ T
l y
u t
s e
l d
Ġ u
i d
k e
Ġf or
v er
i on
Ġ he
a c
i m
' s
' t
a m
a ll
g h
Ġs t
en t
ou t
Ġ A
r o
Ġa n
a d
Ġ S
it h
i f
ou ld
o o
Ġw ith
Ġw e
Ġha ve
Ġd o
i ll
i r
Ġ j
all y
Ġa re
u st
Ġn ot
Ġl i
Ġ W
Ġa s
Ġw as
Ġb ut
o p
Ġ r
. .
e c
Ġw h
Ġm o
u c
Ġth is
Ġthe y
Ġm e
ĠT he
t er
om e
Ġ k
he r
gh t
c e
Ġ H
Ġ B
Ġs e
Ġs o
Ġm y
Ġc an
Ġ M
Ġli ke
Ġs h
Ġ or
Ġn e
u r
Ġa t
Ġj ust
Ġa b
Ġ C
Ġg et
an t
on e
r i
g e
i l
p p
Ġyou r
u n
er s
Ġ D
ha n
Ġp l
k ing
Ġ if
Ġw ould
Ġm a
es t
Ġg o
h ing
Ġa l
am e
n t
Ġa ll
Ġc om
Ġ N
a u
i ght
Ġe x
es s
Ġc on
Ġw he
a b
Ġ P
Ġs u
Ġ Y
e m
Ġu p
Ġw or
Ġd on
Ġf r
Ġ out
ver y
r a
e op
ĠI t
o l
Ġp ro
eop le
Ġ (
i g
Ġab out
Ġs ome
u m
u l
u s
Ġan y
at ion
Ġd e
Ġw hat
in k
c t
Ġp eople
at e
Ġ O
Ġ "
â Ģ
ar t
Ġl e
' m
Ġ E
a st
is t
Ġ v
i ve
Ġfr om
ac k
Ġ F
Ġ G
Ġp o
Ġon e
c h
q u
Ġt r
e l
Ġk n
Ġ L
Ġthe m
oo d
a in
Ġ 1
v en
a nd
Ġmo re
au se
Ġ R
in d
Ġw ill
Ġthe re
ou gh
Ġth ink
Ġs p
Ġbe c
Ġt im
k s
ou r
Ġkn ow
or t
âĢ Ļ
Ġwh o
Ġwhe n
Ġf e
ar d
id e
i e
o re
ec t
e nd
Ġpl ay
Ġha s
t her
Ġn o
Ġp re
Ġl o
.. .
ou nd
it y
Ġbec ause
Ġu s
t h
Ġ 2
Ġw ant
a re
s s
Ġin t
on g
e re
Ġh ow
uc h
Ġt han
' re
e ar
Ġthe ir
Ġd id
Ġre ally
Ġtim e
ĠY ou
ou s
s o
in e
ac t
a g
i es
Ġh is
ic e
Ġha d
Ġth ing
Ġo ther
Ġe very
Ġb y
u re
f f
Ġdo es
Ġa r
a p
b le
m ent
Ġt e
Ġs ay
ĠI f
Ġh im
Ġa g
it e
Ġon ly
t ing
Ġg u
e p
Ġg ood
Ġt a
Ġcom p
Ġ J
Ġm an
l o
u e
Ġs a
Ġ en
w ay
Ġa ct
Ġse e
Ġc ould
Ġof f
r y
Ġthe n
Ġe ven
Ġhe r
Ġm uch
Ġl oo
i re
Ġ *
ic k
Ġ i
Ġu n
ow n
a ge
an s
Ġne ed
t y
Ġ qu
' ve
ĠT h
Ġs he
Ġto o
0 0
i p
o d
Ġb u
Ġbe t
Ġ im
om et
Ġy ear
Ġma ke
Ġw ay
u ally
v ing
Ġo ver
Ġa m
Ġa d
Ġg ame
Ġbe en
Ġsh ould
Ġwe re
ic h
l f
in t
Ġex p
p t
re at
Ġn ow
ĠH e
uc k
Ġ 3
Ġ U
ĠT hat
Ġbe ing
i z
Ġ -
ab le
Ġs omet
Ġgo ing
as s
o s
Ġst ill
u d
Ġg ot
Ġs c
Ġc o
ac e
i le
Ġb ack
c k
ion s
o se
Ġp r
i ous
Ġint o
Ġwor k
re e
t hing
Ġr ight
Ġc l
Ġc h
ĠTh is
ad e
Ġ K
Ġsomet hing
Ġal so
ĠW e
Ġd is
Ġmo st
ou nt
a k
ĠB ut
ĠThe y
b e
ĠA nd
as e
i v
Ġd own
Ġfe el
on d
ir st
f ter
Ġl ot
d it
' ll
' d
Ġtr y
Ġd ay
Ġa c
Ġcon t
Ġu se
b er
as on
nd er
if f
Ġ very
ĠS o
ĠW hat
Ġwh ich
Ġne ver
Ġp art
Ġha pp
Ġg r
Ġwh y
Ġbet ter
Ġgu y
Ġc ha
en s
i al
p er
Ġs ame
Ġb l
Ġdoes n
Ġf irst
Ġwe ll
Ġd iff
u ll
Ġne w
Ġwhe re
Ġ ro
t ty
Ġc han
Ġt w
Ġst art
k es
f ore
Ġsh it
ot her
Ġa fter
ab ly
Ġhe re
w n
ĠW h
ers on
Ġ ke
at ed
en ce
Ġre s
Ġact ually
Ġu nder
ou ght
Ġsu re
Ġpo int
Ġth ough
Ġdid n
is h
i ld
Ġag ain
or m
Ġp er
Ġth r
Ġl it
ig n
Ġsome one
t le
Ġta ke
m o
Ġpre tty
a h
Ġth ose
ve l
Ġm ay
oo l
se lf
Ġ 5
Ġha r
Ġa pp
Ġj o
way s
ac h
Ġthing s
Ġ 4
re ad
ĠS t
Ġre al
Ġbe fore
ri end
) .
if e
re d
n ing
or y
Ġ V
Ġp erson
an ce
ĠA l
s h
Ġc he
b ably
Ġd ec
Ġsa id
Ġf a
Ġyear s
Ġb ad
Ġde f
Ġim p
Ġdiff ere
Ġs er
Ġloo k
Ġl ong
ul t
Ġse em
Ġw r
ĠI n
i a
in ce
i gh
Ġre c
or d
v es
Ġw at
p s
ic ally
Ġhe l
u b
Ġin c
Ġ :
ic al
Ġe nd
re ss
Ġar ound
ar y
Ġis n
ĠThe re
Ġthe se
p le
f t
e ver
Ġme an
Ġre p
Ġman y
Ġg reat
Ġal ways
Ġf ind
o g
Ġ our
Ġb r
Ġcon s
ĠH ow
Ġit s
x t
Ġb ot
w e
Ġat t
on s
Ġt al
ĠM y
Ġte am
l ess
is s
Ġpo st
Ġpro bably
Ġm at
Ġhar d
o c
ur n
he d
o y
i ly
Ġp ut
Ġo wn
Ġsu pp
Ġany thing
ĠN o
Ġc all
Ġwh ile
v ed
Ġtw o
Ġc r
Ġsh ow
u p
Ġfe w
Ġget ting
am es
Ġf l
at ing
Ġb ig
Ġac c
Ġbe l
Ġre ason
u al
e ly
Ġb est
Ġr un
Ġm ade
ĠN ot
Ġf riend
g g
a ve
Ġk ind
ver s
Ġsu b
Ġm on
Ġo p
Ġc ar
f ul
Ġlo ve
Ġb it
Ġs l
Ġb as
l es
one y
Ġke ep
Ġas s
e ll
Ġd es
is e
ic t
Ġs m
ar k
Ġe l
i ble
Ġdo ing
Ġm in
ble m
Ġs ince
Ġl ast
Ġhel p
Ġre l
m er
Ġre ad
Ġthr ough
Ġl et
Ġcha r
Ġf un
Ġin st
Ġwe e
ow er
Ġg ive
ĠD o
Ġm ight
Ġth ought
e ah
Ġpro blem
op e
Ġ $
Ġm oney
Ġen ough
n y
le t
Ġe ver
Ġte ll
g et
Ġlit tle
or s
Ġhapp en
Ġdiffere nt
n e
Ġp h
Ġst r
Ġg en
i an
Ġl ife
Ġs im
Ġcom m
he n
Ġp ay
Ġus ed
en se
ĠI s
Ġf uck
he re
a il
p e
u ff
Ġha nd
Ġo ld
Ġre m
oo k
Ġ ide
Ġf ar
ĠA s
Ġs ec
Ġe as
Ġe m
um p
Ġwith out
Ġt ri
g er
i b
a z
Ġma kes
Ġbel ie
Ġk ill
od y
Ġs ha
l i
a w
ard s
Ġh igh
st and
Ġad d
er t
Ġb o
Ġ ent
Ġg ames
Ġc are
Ġw on
Ġd r
Ġbu y
Ġevery one
Ġs et
uc king
Ġtry ing
ĠJ ust
it her
Ġ 6
ation s
Ġs k
a it
Ġqu est
Ġk id
ic s
Ġc ome
Ġha ving
Ġ hat
ar ly
read y
Ġs y
ere st
l ic
at h
Ġe v
ce pt
Ġf act
Ġle ast
ent s
ĠAl so
Ġo b
Ġbot h
i ally
Ġal ready
Ġmo d
n a
Ġel se
Ġc ur
Ġan other
at her
k ed
Ġt ra
Ġl ess
Ġre g
Ġunder stand
Ġin ter
Ġc le
Ġjo b
Ġin f
e ad
Ġ1 0
Ġt er
Ġc ount
he s
Ġ '
Ġ2 0
o st
i x
at es
Ġsay ing
Ġin s
g r
Ġis s
o ld
iz e
Ġa w
d uc
Ġu nt
ĠWh y
Ġd am
Ġwor ld
ĠC h
Ġf in
Ġs it
n g
t en
Ġmon th
Ġp ol
Ġst op
Ġa way
al s
Ġf ucking
d ay
! !
Ġwr ong
n ce
Ġnot hing
Ġw in
Ġw om
Ġany one
as h
ious ly
Ġint erest
c es
Ġin v
Ġex t
Ġst uff
ter s
Ġs ur
p l
Ġab le
Ġne xt
ĠS he
Ġc lo
Ġunt il
e w
Ġto p
ent ion
a v
Ġd one
it ion
o ot
Ġseem s
Ġs ound
i er
Ġle vel
it s
is m
) ,
Ġc ou
t s
Ġsp ec
Ġwould n
e e
Ġide a
ĠC an
Ġd ri
i ence
Ġres p
ĠT han
ĠW hen
Ġt urn
an g
Ġagain st
Ġh our
t c
Ġma king
Ġus ing
Ġtim es
Ġpo ss
Ġre f
Ġs w
Ġpl ace
ud e
ch ool
er ing
Ġmay be
on t
Ġbelie ve
Ġe ither
Ġguy s
Ġb re
ĠY eah
.. ..
Ġevery thing
Ġsp e
at ive
are nt
an k
Ġgen er
* *
Ġf ree
Ġf ull
Ġcon f
Ġc or
Ġcomp let
il ity
ĠF or
on est
a ke
v ie
ot e
Ġ /
im e
ĠT r
Ġloo king
Ġgu ess
m an
mo st
Ġdef in
Ġg ir
Ġe ff
le ase
Ġcom ment
y s
Ġwho le
Ġexp er
Ġon ce
Ġse en
Ġplay ing
Ġsec ond
Ġhe ad
Ġ 9
Ġs uch
ar s
o ll
Ġw ait
ar n
Ġe tc
Ġh ope
s p
ĠO r
u g
Ġde p
Ġin d
ĠE dit
ir d
em ber
Ġg i
c ed
Ġw ent
Ġ 8
Ġs chool
st em
Ġchar ac
at s
Ġare n
ou se
if ic
Ġget s
Ġwas n
Ġ 7
Ġt y
Ġm ind
Ġm iss
Ġdis c
i ed
Ġre d
in s
l ain
ere d
Ġl ist
ite ly
Ġli ve
. "
Ġchan ge
Ġp ower
ing s
ate ly
Ġsupp ort
- -
Ġplay ers
ul ar
Ġle g
Ġh ome
Ġe ach
Ġle ft
ĠWe ll
Ġre st
Ġc re
we en
l ed
Ġf am
Ġwee k
u es
um b
l t
et s
i ke
d er
Ġsy stem
er n
id ent
le ct
ĠM ay
Ġst and
Ġbu ild
us s
Ġc ra
ol ut
al th
Ġm et
j ect
Ġper f
p h
Ġm ed
d d
ec h
i o
e g
mer ic
Ġp ass
Ġquest ion
ĠU S
Ġh it
Ġbet ween
Ġc our
ert ain
re n
at er
Ġn ice
Ġpl an
re nt
Ġop en
Ġde al
Ġy et
in king
b o
" .
Ġad v
c ess
Ġsm all
c i
e f
Ġse x
Ġch ild
c hing
Ġcl ass
Ġday s
Ġloo ks
ur ing
Ġinst ead
Ġal most
ow s
Ġfriend s
Ġsu per
ĠA meric
Ġw ar
Ġex act
Ġmo ve
Ġhat e
n er
Ġwor th
Ġs ide
Ġm om
Ġv ide
Ġd ra
Ġgir l
Ġf ight
Ġ ed
Ġh u
Ġre t
Ġst ory
Ġ es
Ġco ll
b ody
Ġcont ro
Ġc ase
it ed
or ry
re am
Ġn ame
ĠD on
Ġag o
Ġs ign
Ġd ro
Ġme ans
Ġtal king
Ġs ing
Ġ1 00
Ġtr ans
a id
or n
Ġf ound
Ġent ire
p r
Ġdefin itely
b s
am p
ot s
iv es
Ġstart ed
Ġwant ed
an y
ĠA ll
it ies
Ġab s
ist s
m s
Ġag ree
Ġp ick
Ġwor d
Ġse ason
Ġh um
c y
Ġo pt
ub lic
Ġ âĢ
Ġ: )
Ġrem ember
ĠO h
im es
ĠMay be
Ġexp ect
ĠU n
w here
l ing
Ġp op
al ity
e x
Ġmy self
ec ially
Ġex c
Ġplay er
n ess
Ġl ol
Ġo pp
om m
ĠA t
Ġb us
k en
er ally
Ġ z
in es
m ed
Ġ* *
a le
ĠA ny
l ine
Ġg l
o ck
Ġas k
Ġc ut
Ġar t
Ġhour s
Ġn ight
Ġv al
Ġs ense
Ġh onest
ĠS h
Ġf ine
Ġa v
ĠThe n
Ġmin ut
Ġchan g
Ġd ou
Ġw ond
ow ing
un ch
Ġkid s
ĠY es
an e
Ġr ather
ol og
Ġc ool
j oy
Ġme m
Ġc ertain
Ġco st
r act
ĠR e
Ġpro duc
Ġm ar
iz ed
Ġc ap
E R
a pp
n ot
Ġwom en
Ġ >
Ġcur rent
Ġb ra
Ġre qu
w ard
Ġexper ience
Ġiss ue
y ing
ire d
s w
Ġmonth s
Ġha lf
Ġmat ter
il ar
Ġy es
on na
os ed
Ġcomplet ely
ĠThan ks
Ġm id
Ġwat ch
Ġcom es
Ġneed s
ro ss
Ġg un
a ir
Ġha ven
Ġto ld
Ġqu ite
Ġtr ue
Ġc ame
Ġwor king
Ġ Q
ĠT o
Ġyour self
ure s
ent ly
Ġlike ly
a king
Ġar g
id er
Ġtal k
Ġl aw
are d
Ġop in
ĠT H
ĠO n
ion al
Ġsing le
o ve
Ġa ut
Ġhe ar
ie ld
Ġf ast
Ġ X
ĠN ow
Ġpo s
Ġus ually
Ġplay ed
Ġposs ible
Ġto t
m m
an ge
Ġgr ou
Ġb ro
c ial
Ġw al
sh ip
Ġen joy
Ġso l
Ġhe ard
ire ct
Ġl ine
Ġfa v
re m
ĠB e
Ġon es
Ġs uc
Ġl ar
Ġtoo k
Ġl ow
t ed
o b
us h
ĠS p
is ed
ec ause
in ess
ĠS ome
t he
Ġfam ily
Ġass um
Ġg onna
Ġam ount
at ch
Ġn orm
Ġf re
Ġcall ed
Ġcour se
Ġbl ack
Ġeff ect
c hed
f ort
Ġfa ir
Ġgo es
Ġp ast
up id
Ġh ouse
Ġth inking
ĠB l
ic es
Ġse ll
Ġp ur
Ġst ay
Ġtri ed
Ġle arn
Ġcou ple
Ġsit u
re ct
Ġclo se
Ġ ve
Ġf ood
ĠA re
Ġwor ks
Ġeas y
Ġli ght
j or
Ġd uring
Ġdam age
re en
Ġche ck
ð Ł
I T
Ġother s
? ?
Ġf an
Ġcomm un
Ġdon t
Ġcount ry
Ġsay s
ĠB r
ĠE very
Ġh old
u nd
Ġp arent
Ġo k
Ġhappen ed
Ġm ark
Ġimp ort
ver n
Ġpre s
Ġlit erally
Ġst ud
Ġan sw
se l
Ġta king
Ġvide o
Ġwat er
Ġf ace
Ġexact ly
c o
Ġf oll
s ide
ter n
Ġm en
ĠP eople
Ġm ention
Ġabs olut
ĠO ne
am ple
I N
i ent
Ġd em
Ġsp end
i pp
Ġ Z
ĠA r
l and
Ġhe alth
ĠP l
st er
Ġof ten
m p
Ġg ra
od e
Ġm ust
Ġma in
Ġst upid
w h
5 0
Ġem p
âĢ Ŀ
s ing
Ġr id
et y
Ġlo c
Ġp ri
Ġsa w
ment s
Ġcharac ter
ens ive
Ġma jor
p ecially
Ġpro f
o ice
Ġs ort
Ġa ff
it ch
um ber
or k
Ġhu ge
re t
Ġle ad
Ġall ow
Ġacc ount
re s
Ġcom ing
Ġd irect
1 0
ĠB ecause
Ġatt ack
Ġm us
ĠâĢ ľ
ĠF r
Ġbas ically
Ġt est
ĠTr ump
Ġstr ong
in al
ĠA n
00 0
Ġp ull
Ġ &
ri b
Ġl ater
Ġwh ite
ĠD id
Ġam az
Ġd et
Ġb at
Ġob v
Ġcon c
es ome
ic ul
Ġim ag
Ġm ess
Ġhe ll
ri ble
on es
Ġchan ce
Ġle ave
Ġhapp y
m a
Ġwhat ever
Ġp ot
u se
ĠL ike
Ġsound s
ull y
g y
Ġb an
Ġc ard
w ards
Ġmo vie
Ġqu ick
Ġst ra
Ġt ech
id es
Ġgo vern
Ġc op
Ġn on
Ġp ar
Ġf il
Ġcontro l
r ist
Ġb oo
Ġto get
Ġtoget her
sel ves
Ġopin ion
Ġ3 0
Ġbre ak
Ġta x
Ġfor m
f er
it ive
Ġimport ant
Ġl uck
Ġto day
Ġinc l
Ġe y
Ġ vers
ĠE ven
em s
Ġp ain
Ġminut es
Ġst e
ant s
c c
Ġpr ot
z y
o le
ĠP ro
m ore
Ġcould n
in ed
Ġst ate
Ġh ig
Ġd ist
Ġs n
vel op
re w
Ġan n
Ġes pecially
ĠL e
Ġex ample
Ġf ix
Ġinter n
Ġph one
Ġf ig
Ġdo g
Ġexp lain
ĠE x
Ġsim ilar
lo ck
Ġc reat
Ġwant s
Ġe qu
Ġsh ort
Ġsk ill
Ġperf ect
Ġbas ed
ĠO P
Ġrun ning
Ġbu ll
Ġpol it
el s
Ġiss ues
Ġn umber
f ully
i ans
O T
is ion
o id
uc t
Ġro om
c hes
el t
Ġsitu ation
Ġcon st
Ġwe ird
Ġb en
b r
ha r
Ġs al
as ed
Ġr ac
it ing
Ġm il
Ġf ire
Ġc ol
Ġm or
Ġlo st
Ġbr ing
Ġb ody
Ġm ult
Ġa p
Ġor der
Ġ ill
Ġfav or
Ġwor se
ib ly
Ġso on
Ġst at
i en
ie w
Ġc au
ar ch
gg est
p ed
c on
Ġche ap
Ġ +
Ġpr ice
Ġh or
Ġd i
Ġen g
Ġde velop
ĠY our
l er
2 0
Ġst ore
ĠDo es
ĠR ed
ĠG ood
Ġbec ome
g le
Ġe at
ag es
ri ed
c om
Ġgrou p
r ow
Ġp at
Ġb ar
Ġth ree
Ġsh ot
Ġparent s
b t
Ġsu ggest
Ġamaz ing
Ġev ent
Ġv iew
Ġ20 1
Ġc ause
in ing
Ġsa f
p ly
a im
ect ion
b all
^ ^
Ġw ish
Ġbus iness
Ġex ist
g in
Ġdiffere nce
Ġty pe
a x
Ġun i
Ġgovern ment
Ġy eah
Ġp ict
A T
Ġpro v
Ġsh oot
Ġabsolut ely
Ġe lect
Ġde v
au gh
r u
Ġwee ks
Ġde ad
Ġbe h
Ġta kes
li ke
c le
Ġsur pr
or ies
Ġlo se
ation al
ag ue
lo y
Ġn ec
Ġl im
Ġcor rect
Ġre mo
ĠG od
Ġd ue
Ġf all
Ġun less
Ġcomp any
Ġinterest ing
Ġse lf
id ed
r ic
us ed
Ġp ublic
Ġh ur
Ġhapp ens
Ġpro per
Ġwe ap
Ġgo d
t on
Ġwond er
ri es
n o
Ġpre v
Ġaw esome
Ġrep l
Ġb all
t o
Ġh ist
Ġor ig
Ġcont in
at ure
Ġact ual
ri ght
Ġ id
Ġar m
Ġbeh ind
ĠS e
Ġe p
Ġfr ont
Ġhum an
Ġs mo
O U
i ec
Ġthem selves
Ġv i
d le
Ġsomet imes
Ġlar ge
Ġe arly
Ġnorm al
ot h
Ġa ir
Ġsim ply
Ġdam n
Ġh y
ĠM ost
Ġth read
g an
ant ly
vie w
Ġh ot
it al
t e
ĠG o
L L
Ġ5 0
m ing
Ġm ill
pl ay
Ġwom an
Ġr u
Ġcomp et
Ġred dit
um ent
Ġ1 5
Ġfig ure
Ġv ot
au lt
ver age
Ġansw er
Ġfa il
Ġshould n
Ġmark et
Ġcle ar
ĠIt s
Ġsee ing
Ġgi ven
Ġhonest ly
Ġrel ation
Ġf ore
ac es
Ġp lease
r ing
Ġb ook
r on
b y
Ġgener al
Ġs orry
Ġ .
un k
Ġf ut
Ġst re
Ġsc en
ac y
Ġt reat
ĠI m
Ġsupp osed
Ġext rem
em ent
Ġs ad
Ġp e
Ġare a
Ġd ie
at or
Ġma g
m e
Ġre le
ĠH a
if y
Ġout side
v ot
le ep
Ġas ked
Ġ ign
i k
Ġde ath
is hed
ĠA m
Ġ =
Ġ x
Ġtr ade
c ha
ĠW ith
omm end
Ġpo or
Ġdes ign
gr am
Ġpart y
Ġm ass
and om
Ġany more
g ress
Ġf elt
Ġcra zy
er v
Ġwork ed
Ġs ent
Ġany way
Ġser v
Ġinf orm
Ġwe ar
Ġso cial
Ġhig her
un g
ip s
Ġrelation ship
n ed
Ġrec ommend
Ġb oy
s c
er y
Ġkn ew
i or
Ġd ude
Ġspe ed
out h
Ġimag ine
Ġlong er
ust om
Ġv is
Ġext ra
Ġinc re
Ġp ack
m it
Ġcons ider
Ġ1 2
in a
Ġdri ve
ound s
end ing
Ġas king
am a
Ġfut ure
is on
Ġpoint s
Ġt it
Ġcl aim
or ing
Ġex cept
" ,
Ġli ving
ap e
Ġknow s
Ġcomm on
Ġ ir
Ġb ought
Ġne ar
s ed
Ġf em
Ġkind a
ĠW ould
ĠC l
Ġb ab
ĠWh o
ĠCh rist
Ġfun ny
g ed
Ġg ave
Ġpr om
Ġcomp lain
p ect
Ġsl ow
Ġan t
Ġstra ight
Ġrel ig
Ġbe at
Ġm is
Ġeas ily
Ġd est
lo ad
Ġwat ching
R E
u ro
e ge
ast e
Ġmus ic
Ġgi ving
ut ion
Ġapp ro
w ise
if t
Ġproblem s
Ġp iec
Ġcle an
ic ks
O N
Ġtot ally
Ġf ans
Ġteam s
Ġty p
A N
ĠM an
at ur
Ġal ong
ou d
Ġf it
Ġf oc
o int
ic le
ar i
Ġinterest ed
Ġh op
Ġpr act
g ing
Ġres ult
f or
ro ll
Ġ 0
ĠHow ever
Ġtech n
Ġse nd
Ġlo g
oc r
Ġmult ip
ĠL et
u gg
o f
ĠD e
Ġf oot
Ġinv est
y le
c he
Ġrequ ire
Ġwor st
Ġph ys
ive ly
Ġl and
Ġmom ent
Ġr andom
Ġw all
Ġneed ed
Ġreal ize
o ss
Ġ1 9
ĠThan k
Ġpro cess
Ġv s
Ġfoll ow
Ġpre ss
r al
Ġbo x
Ġv ote
Ġne g
Ġcom b
Ġfeel ing
ĠJ o
id ence
Ġa ge
m on
is ing
ĠH ave
Ġup d
Ġan im
Ġc al
Ġcommun ity
Ġc ity
Ġp aid
Ġdro p
ĠAmeric an
ĠE D
s et
A A
Ġc ustom
s es
in y
Ġthan ks
he ad
ĠS c
ort s
Ġser ies
Ġcharac ters
Ġlist en
Ġhist ory
a ut
Ġvers ion
Ġc ent
Ġal one
Ġmat ch
Ġsp ace
i um
Ġproduc t
Ġon line
Ġac cept
Ġt on
sh it
Ġwe ight
Ġeas ier
Ġpro gram
Ġjo ke
Ġc as
om b
Ġc amp
Ġlook ed
Ġdisc uss
Ġc ult
Ġqu ality
Ġchild ren
Ġs qu
Ġw ind
IN G
O O
l ish
if ied
Ġval ue
Ġme et
Ġdr ug
Ġb ase
at a
Ġm ine
ĠO b
Ġm other
Ġcr it
Ġincl ud
Ġperf orm
Ġresp ect
Ġgo ld
r or
ĠO k
at ic
Ġ ðŁ
Ġcont ent
ĠM ar
E S
Ġg one
Ġfeel s
Ġme ant
Ġle a
t a
Ġfavor ite
pp ed
our ce
Ġb unch
Ġsa ve
Ġw ife
Ġser iously
Ġspec ial
Ġr an
c l
th ough
Ġch oice
Ġcoll ege
ĠN ew
un t
Ġro ll
Ġcomment s
Ġread ing
Ġc ards
ĠA fter
Ġg ives
Ġen em
Ġc ir
Ġyou ng
Ġopt ion
Ġav ail
Ġperson al
Ġb ill
Ġimp ro
Ġcon n
l s
Ġp en
Ġm ent
Ġch oo
ul es
Ġinv ol
w ork
ĠWh ich
Ġben ef
Ġpot ent
Ġst ar
Ġtr ad
Ġrec ord
am er
Ġter rible
Ġser ious
ĠE ng
qu e
Ġnec ess
art h
Ġshow s
ĠTH E
Ġs leep
Ġit self
Ġdec ent
k y
Ġta ken
ĠW here
Ġep is
Ġt ou
Ġmid dle
? "
Ġpos ition
o ff
Ġwith in
er o
ĠS u
Ġdou bt
ĠM e
Ġhe ro
Ġemp loy
Ġmost ly
ut e
ĠN e
Ġst ick
ore d
ĠP C
h ow
ar r
Ġ: (
Ġke y
Ġst ep
h h
Ġr is
on y
Ġc at
Ġhim self
ver se
Ġd ad
il t
Ġspe ak
c ing
ou n
Ġhe av
Ġobv iously
ĠS orry
ic ed
E D
ĠA pp
p ar
Ġo cc
ul ation
. )
Ġa verage
i ot
le x
Ġacc ess
Ġwhe ther
Ġd umb
at t
Ġb ur
Ġl ate
Ġre ce
ĠW as
Ġab ove
an ger
Ġcou n
Ġallow ed
g est
s y
es e
ĠCan ad
end s
Ġavail able
Ġkill ed
Ġsim ple
Ġfor get
ic ult
Ġnew s
em pt
Ġorig inal
Ġstart ing
ir t
ĠS er
Ġr a
Ġsuc cess
olog y
Ġpre fer
ĠED IT
Ġintern et
Ġter m
Ġm ist
ist ic
Ġl ower
g es
Ġl ink
Ġcomp ut
Ġperson ally
ĠRed dit
Ġ2 00
Ġinform ation
ĠH is
Ġs ong
Ġcan not
Ġb al
Ġse ver
Ġ ?
Ġ [
Ġs we
f orm
Ġl a
Ġdes er
ĠF uck
Ġcon v
act ion
Ġb i
Ġshit ty
Ġm ot
Ġsk in
Ġf ill
im ate
Ġpict ure
am ing
Ġann oy
Ġpri v
! "
Ġassum e
ap er
ĠG et
arent ly
o k
Ġdo ll
Ġp un
oo gle
Ġl ack
u be
Ġ er
o ke
Ġhe art
Ġbe gin
Ġim m
Ġok ay
Ġdiff icult
Ġha ir
Ġ ~
Ġav oid
Ġword s
Ġreg ard
Ġcurrent ly
p ing
Ġhand s
Ġquest ions
Ġman ag
r uct
icul ous
Ġwal k
b ack
Ġpol ice
a a
ac king
Ġtell ing
m y
ĠG u
w are
Ġab ility
Ġj ump
Ġfor ce
Ġthr ow
Ġbuy ing
end ed
Ġso ld
Ġwill ing
ast ic
ĠAmeric a
Ġdr ink
Ġdec ided
Ġ4 0
Ġoff ic
Ġen c
ro om
3 0
Ġcle arly
Ġinc red
Ġspec ific
Ġsever al
Ġfoc us
Ġloc al
en cy
Ġvi ol
Ġchang ed
Ġte ac
red dit
Ġs ize
Ġrec ently
Ġt ar
ang u
I S
ĠP S
uc ks
Ġexp ensive
ent y
Ġbec om
Ġp ort
? !
Ġf ur
Ġsc reen
Ġbab y
ay s
Ġwait ing
id ering
l us
ĠA d
Ġc ry
Ġadv ice
ĠK e
are ly
c ks
Ġdes c
Ġph ot
ĠI S
Ġto wards
Ġresp ons
fort un
ri pt
ak es
Ġj ud
am s
ĠA N
Ġreason s
Ġret urn
z e
ĠS omet
Ġsp ot
re st
Ġarg ument
Ġac ross
Ġed it
o ly
Ġ |
-- --
Ġpay ing
Ġf at
Ġso ci
Ġbull shit
Ġpart ic
Ġt ur
Ġg ain
E A
he t
Ġgirl s
ĠW ar
Ġrid iculous
ap t
Ġte xt
em p
ort h
p ro
Ġb ed
Ġ1 8
Ġextrem ely
l im
Ġleg al
bo x
med i
Ġsh op
Ġway s
ic king
ly ing
Ġturn ed
ĠP r
Ġmultip le
in ation
ĠR uss
Ġhur t
g ot
Ġwor ry
Ġre lease
iz z
Ġbl ood
Ġr ules
g o
Ġsaf e
Ġmed ia
Ġn et
Ġr ange
w hat
ĠThe se
Ġsp ent
ĠG r
ĠS ure
ĠC he
e al
Ġfuck ed
Ġpop ular
ress ed
ect ed
Ġro ad
Ġfin ally
con om
Ġhow ever
E E
Ġpl aces
ĠR ep
Ġgr ound
ib ility
Ġoff er
Ġwe ak
uro pe
is ter
Ġp iss
ab ility
and s
Ġserv ice
Ġcertain ly
2 00
ide red
Ġ #
Ġpro p
j ust
Ġst ri
o x
ra p
Ġle ague
Ġatt ention
Ġdest ro
s er
ĠH onest
Ġey es
ĠHe y
Ġma x
Ġlo ad
Ġput ting
Ġcomp an
Ġdo ct
Ġcons idered
Ġde ep
Ġd ark
C K
Ġst ream
ur y
Ġins ide
v ies
Ġbot t
Ġha ha
re ci
b ook
ct ion
Ġdis app
le ment
Ġdo or
Ġl ab
Ġsurpr ised
Ġtr ack
b it
ĠP re
Ġbe ha
Ġs uck
Ġli ves
Ġdown vot
iz ation
Ġwr it
ĠO f
Ġe ar
Ġconc ern
c ome
Ġdis ag
ĠC om
Ġcomplet e
Ġu lt
Ġchang es
Ġchoo se
Ġfor ward
Ġeng ine
led ge
ha ps
Ġbuild ing
Ġpost s
Ġf und
Ġpiec e
Ġsl ight
end er
Ġe conom
wh ich
Ġgl ad
Ġknow n
Ġas sh
Ġdra w
Ġcon vers
Ġgener ally
Ġ est
Ġmajor ity
Ġcar ry
ĠF l
c er
ad es
ĠP lease
Ġ ...
ol es
ac ed
Ġsub reddit
Ġd ick
Ġmill ion
Ġf ield
ĠWh ile
Ġset ting
ar ily
Ġa f
O R
Ġ ,
Ġim medi
Ġr ound
Ġgr ow
Ġd a
Ġto wn
Ġtr ust
Ġgot ten
ĠY OU
Ġl angu
d e
Ġre se
ll en
Ġrep ort
u ly
ĠT w
Ġr ate
Ġpro ject
ir m
iv id
Ġit ems
Ġtar get
ail s
ress ion
am n
Ġtit le
o ver
h ip
a ff
_ _
er al
ĠH ope
k er
Ġbr other
ut h
ear s
Ġd ate
Ġcre dit
Ġco ver
Ġmiss ing
Ġmention ed
re ed
an ces
ĠOn ly
Ġsp ell
Ġread y
ĠF irst
ĠA g
iz ing
ere nce
Ġend ed
m in
Ġfe ed
n am
Ġquick ly
Ġd ata
ke y
Ġde g
Ġboo ks
Ġn umb
Ġlot s
a f
ast er
ĠC on
oo ks
Ġ1 6
Ġc y
g on
Ġt ick
ĠQ u
Ġjob s
l ight
Ġbo ss
Ġthan k
Ġg ay
Ġpost ed
Ġm ach
t ime
ure d
Ġpur p
ec han
er man
Ġter ms
Ġ2 5
T he
b ers
ĠHonest ly
Ġmo vies
Ġn er
Ġleg it
Ġsome where
Ġcall ing
d o
Ġd iv
ĠW ill
v ant
Ġbig gest
Ġadd ed
Ġprof ess
a i
Ġmo ving
Ġf lo
ĠW or
Ġant i
S T
Ġst yle
Ġart icle
Ġsuc ks
M O
Ġap art
ne y
Ġapp reci
ĠW ow
Ġcomp ared
c king
Ġcomput er
b ut
Ġgra nd
r ation
Ġthat s
Ġ9 0
Ġev idence
Ġsur v
Ġb lock
Ġill eg
Ġth reat
Ġhas n
Ġem ot
ĠTh ose
op h
ou ble
Ġreg ular
Ġhel ps
ĠP er
o il
Ġnot ice
ĠI nd
Ġr ace
Ġsha re
ĠC ha
ĠT V
Ġcur ious
Ġm ix
Ġsu sp
Ġcar s
8 0
Ġbig ger
Ġup gr
Ġcan t
ar b
P S
Ġbra in
Ġke pt
Ġma p
Ġpart s
d ing
Ġ1 4
g n
Ġor gan
Ġcre ate
d en
Ġmin im
fortun ately
Ġgo al
on se
Ġv ol
Ġatt ract
Ġb ag
ĠE urope
iv al
ĠFr om
Ġwere n
Ġm ur
e ed
i od
ĠSt ill
Ġcompan ies
Ġlo ck
ĠL ol
Ġs ick
Ġk ick
ĠS w
c her
ver t
Ġt ank
er gy
Ġsm art
Ġt end
Ġcons idering
Ġother wise
Ġopt ions
u el
Ġ6 0
Ġepis ode
ĠSt e
ĠS ha
Ġsu ff
Ġm echan
Ġwr ite
Ġopp os
Ġr out
Ġcontin ue
Ġc ross
Ġtot al
dit ion
Ġbe aut
ap an
bo ard
Ġevent ually
Ġl augh
Ġno body
p ort
an a
Ġstand ard
Ġd ied
Ġfem ale
Ġc ast
Ġc ode
a ks
Ġey e
Ġ1 1
er m
Ġt re
Ġold er
Ġaw are
an na
ĠO ther
A M
Ġs il
p ut
Ġpolit ical
Ġweap ons
Ġobv ious
6 0
Ġc and
fort able
Ġ ;
pp ing
Ġf ant
Ġpotent ial
Ġsecond s
Ġp ush
Ġdisag ree
Ġhappen ing
ĠRe ally
a ur
m or
Ġbl ue
Ġsoci ety
Ġf our
Ġso ft
Ġdef ense
Ġweap on
Ġnumb ers
Ġr ad
Ġli ber
Ġpl enty
ĠM c
ir th
Ġdou ble
Ġind ivid
ĠP h
Ġaff ord
Ġstop ped
Ġris k
Ġcont ract
Ġmor ning
Ġe ating
ĠA ct
l it
Ġ ident
Ġcomp ar
Ġsol id
Ġt our
Ġresp onse
r ay
Ġcont act
Ġwat ched
Ġexper ien
Ġcount ries
Ġth ird
h or
Ġlo ved
A R
Ġli ked
r im
E N
Ġn atur
Ġha ng
Ġc amer
m mer
Ġde b
b and
re l
Ġcha llen
Ġhe al
Ġexp l
Ġ ess
ĠG reat
Ġd ream
ĠC ould
Ġgun s
Ġpro gress
Ġa ud
y ou
Ġser ver
il ities
Ġpol ic
Ġact ion
if ul
Ġpur cha
Ġscen e
os p
1 5
it es
it ary
Ġchar ge
ĠS ame
Ġlo ss
Ġposs ibly
Ġmean ing
Ġinvol ved
Ġob ject
Ġor d
l ay
b l
Ġatt empt
m iss
Ġp us
Ġsome how
Ġl ad
Ġs at
s on
Ġsw itch
Ġfur ther
Ġcha mp
Ġrac ist
ipp ing
es us
Ġbo ard
Ġd om
Ġkill ing
Ġdes p
Ġcoun ter
in c
ĠI T
Ġ- -
Ġd en
r om
if ically
ur ance
Ġg ear
Ġimmedi ately
d y
Ġany where
e y
Ġthink s
iv ed
ke nd
ĠW ait
Ġcl ub
Ġcir c
i et
Ġlaw s
Ġdec k
Ġed uc
Ġenem y
Ġbu d
h n
Ġsh ut
e xt
Ġinf l
Ġfast er
Ġd anger
Ġdri ving
Ġper iod
ill y
Ġbra nd
Ġman age
ĠB y
ĠS O
Ġhard er
ĠT ry
ĠEng lish
Ġb lo
Ġlo sing
Ġne arly
ge nd
um e
Ġhop ing
n ow
Ġcons ist
Ġen ergy
Ġf ather
Ġknow ing
Ġse par
O W
Ġl if
Ġma le
Ġentire ly
Ġmod e
ĠHe ll
Ġp aper
Ġqu e
A S
!! !
Ġre duc
Ġb other
ru pt
Ġnot e
ĠD em
Ġmin or
Ġoff ice
Ġmet h
Ġfair ly
ĠEvery one
Ġp an
1 1
r it
Ġdestro y
Ġbro ken
4 0
Ġsit ting
p ri
r d
Ġtra vel
Ġp age
Ġdec ision
Ġcol or
Ġro ck
our ces
Ġd ig
Ġpr im
Ġinst all
ĠN OT
oo oo
oss ible
Ġcult ure
Ġan g
Ġfor got
ipp ed
e a
Ġright s
ur ity
ĠS ince
Ġsign ific
Ġmass ive
Ġadv ant
Ġimpro ve
Ġbas ic
Ġaut om
Ġl ay
er c
Ġannoy ing
Ġru le
ort un
Ġo dd
Ġknow ledge
Ġtr uly
u x
Ġm ad
Ġneg ative
ĠSu per
Ġtw ice
Ġs on
Ġupd ate
Ġh us
Ġbott om
Ġt able
ict ion
Ġhand le
Ġprot ect
Ġreal ity
Ġindivid ual
y m
Ġcontro ll
Ġfull y
Ġnot iced
Ġb urn
Ġdec ide
Ġbu ilt
en g
ĠS m
Ġad mit
Ġilleg al
Ġro le
Ġmo ved
Ġus es
Ġin j
Ġlangu age
Ġfe ll
Ġstart s
ĠU K
Ġfight ing
Ġind ust
ter y
Ġtra in
Ġs ource
Ġwee kend
ĠN ever
ĠPro bably
Ġsh ip
ĠR em
Ġplay s
y ond
Ġp ers
Ġmess age
ĠPl us
Ġst ates
ĠBl ack
Ġp sy
ĠJ apan
Ġaw ful
Ġb on
Ġn one
Ġphys ical
Ġc ash
Ġconst antly
b al
ĠO nce
Ġact iv
ĠR ight
u z
Ġen v
al d
as k
ra ph
Ġbeha v
Ġpurp ose
Ġapp arently
o es
ĠSer iously
Ġeff ort
Ġst uck
Ġbr ought
Ġpl us
Ġo il
ĠH ere
Ġteac her
Ġbu ff
Ġs ite
ĠA ust
id ing
a wn
Ġit em
Ġb irth
ĠG erman
Ġ ^^
Ġv oice
m b
g s
ĠCanad a
Ġe gg
Ġstr ugg
Ġuse ful
iv il
Ġs ens
Ġl ines
Ġad ult
O S
il i
Ġcomm it
Ġst ock
Ġheav y
Ġtou ch
Ġincred ibly
ĠM ore
Ġpos itive
Ġlearn ed
h ood
Ġh om
res ent
Ġth o
O L
ip e
Ġcra p
ut s
Ġsex ual
Ġc e
c ent
Ġvide os
Ġcare er
Ġhor rible
Ġre view
* .
Ġincre ase
Ġy ell
Ġrem ain
Ġwr iting
ĠG ot
Ġco ld
Ġo per
is es
f riend
Ġskill s
Ġbat tle
is hing
Ġtra ining
er ial
b or
ĠM ic
Ġu nd
Ġv ari
Ġtr ouble
Ġrelig ion
Ġ ut
Ġb ank
Ġmem bers
V E
Ġpract ice
Ġfil m
et h
Ġslight ly
Ġf ault
Ġcon cept
Ġconvers ation
Ġv ict
Ġexp lo
Ġth ous
ĠG oogle
Ġto ol
b um
Ġpl at
Ġbl ame
Ġw anna
Ġdirect ly
Ġr ap
as es
f l
e v
ĠG en
ord er
as c
an ced
p or
f s
Ġprov ide
Ġmod el
Ġinf o
h ol
dd en
Ġfin al
Ġa head
Ġpres ent
v ote
Ġb and
ff ic
Ġmil itary
Ġrem ind
Ġ8 0
Ġpre d
ir on
Ġ1 3
Ġch ick
li er
Ġle ar
Ġtr uth
Ġwe bs
ter day
Ġimp ossible
i i
Ġpartic ular
ĠðŁ ĺ
Ġfe ar
Ġf ac
Ġsu dden
gr ound
Ġseem ed
Ġspec ifically
Ġexc ited
ĠSt ar
as y
ĠD ef
n ers
Ġacc ur
Ġst ories
ent ially
Ġgr ab
o on
Ġminut e
ĠC ar
Ġpri or
ĠI nt
Ġma int
ĠD is
Ġpre t
Ġlevel s
Ġan al
Ġresp ond
Ġfin ish
Ġre v
Ġins urance
Ġdoll ars
b ed
Ġk it
Ġwond ering
Ġhus band
Ġlea ving
lf riend
he l
Ġc atch
Ġw aste
Ġinter view
Ġsc rew
Ġperform ance
Ġ2 4
ar ant
ĠRep ublic
us ing
at ors
V ER
Ġmiss ed
ĠJ esus
Ġsc ore
oo king
Ġrele ased
ĠS T
ĠL ook
Ġcau ght
Ġkeep ing
ak ed
7 0
Ġaff ect
u ed
Ġmo b
Ġreal ized
1 2
Ġopp ortun
ra ft
Ġbeaut iful
Ġid iot
Ġassh ole
Ġu r
r ated
Ġrese arch
ĠN ice
Ġadvant age
es ides
olut ion
ĠC al
Ġdoct or
Ġinclud ing
Ġmat erial
ir ing
Ġh ost
Ġb le
ĠJo hn
Ġcl ot
se c
Ġfoll owing
og n
Ġsell ing
Ġprev ent
Ġm ic
1 00
Ġfa ke
Ġpriv ate
Ġr are
ĠIn st
Ġal bum
t hat
Ġide as
Ġhu nd
ar ies
Ġover all
Ġfind ing
ĠF U
ĠHa ha
Ġrel ated
ĠB at
Ġcost s
Ġg reen
ĠPre tty
Ġreg ul
un e
b ing
Ġsub ject
ce ll
E T
Ġhund red
ĠA M
Ġbe yond
Ġswe et
le y
augh ter
Ġins ane
Ġt roll
t w
ĠAN D
Ġluck y
n el
a ign
Ġlear ning
Ġlim it
Ġr aid
Ġthe ory
Ġbec ame
Ġdrug s
u le
Ġt en
Ġremo ve
c ast
Ġf ing
Ġs ou
w or
Ġpower ful
Ġg lo
e es
ĠSh ould
Ġappreci ate
as ing
Ġwear ing
Ġbe er
Ġwal king
ĠE sp
Ġgr ad
Ġcamer a
i j
ĠD ra
ĠB et
Ġne igh
Ġup set
ĠSomet imes
am ed
ire s
Ġfr ust
Ġbecom es
Ġapp ear
Ġref er
Ġregard less
Ġhealth y
Ġfor ced
au l
ra id
Ġperfect ly
Ġrep e
Ġpsy ch
ac hed
Ġre nt
Ġadd ress
it iz
A Y
Ġme at
Ġc ook
Ġban ned
ou ra
Ġh un
ĠT e
Ġarm or
Ġin it
op s
Ġinc ome
Ġhold ing
Ġfoot ball
Ġmod s
Ġb arely
ch ie
Ġbit ch
Ġz ero
ĠL i
Ġwin ning
Ġto mor
I L
ĠUn less
Ġacc ident
ĠP erson
Ġdeg ree
y r
Ġrun s
ĠPl ay
Ġimp act
Ġexpect ed
Ġconf used
Ġo h
v ent
ĠNot hing
Ġdesp ite
Ġgir lfriend
t r
Ġsm ell
Ġtomor row
ĠAny one
Ġyes terday
ĠL ooks
P U
vers ity
in ting
Ġpr ices
Ġv ac
Ġnecess ary
Ġcreat ed
Ġment al
Ġb orn
Ġhigh ly
ĠD amn
Ġli ved
v al
Ġturn s
Ġdep ends
Ġkeep s
ĠE n
Ġprev ious
Ġcamp aign
Ġd un
Ġtax es
Ġp ure
ĠH er
ĠC o
Ġg as
ur ch
Ġbenef it
id s
Ġdiscuss ion
Ġmag ic
Ġes c
re g
Ġf ol
Ġcoll ect
Ġbro ke
Ġcons erv
ur al
Ġpick ed
Ġ ver
ĠOb ama
Ġda ily
ĠW H
ĠH ill
Ġal though
ro duc
ĠS ounds
Ġpre gn
Ġde li
co hol
Ġmeth od
Ġbut ton
Ġsol ution
le e
Ġp et
Ġp orn
Ġcop y
Ġc ore
Ġtal ent
od es
u ine
Ġm outh
Ġon to
Ġspend ing
Ġjud ge
Ġhelp ed
ord ing
Ġre b
ĠM us
Ġint ell
ic ation
i est
at ives
Ġr ich
Ġl ane
Ġqu it
Ġrep resent
Ġenv iron
Ġrec ogn
Ġdra ft
Ġp ow
ĠE U
u it
ative ly
Ġremo ved
ur s
Ġdri ver
ĠI N
Ġbel ow
ĠD ep
Ġsmall er
us es
Ġmach ine
I I
ĠKe ep
Ġcheap er
Ġmar ried
Ġgrou ps
Ġoppos ite
Ġst ats
Ġaf raid
ĠS ec
Ġclass es
Ġf ed
Ġwrit ten
ar io
Ġbal ance
Ġmod ern
2 5
Ġre ach
Ġr ide
Ġt ough
ĠB as
Ġmist ake
Ġpop ulation
Ġtri p
Ġshow ing
Ġn ames
ĠV ery
Ġdo c
Ġsu mmer
Ġreason able
Ġlim ited
Ġunderstand ing
Ġev il
Ġshoot ing
ĠEsp ecially
Ġt aste
O M
Ġstre et
~ ~
Ġwant ing
Ġtr ash
Ġcas es
Ġresult s
Ġev ents
Ġcont ext
3 1
ĠI d
it ude
we ll
O P
Ġse lect
ĠB ig
Ġfore ver
Ġopp on
ĠAmeric ans
pp er
in o
ar c
ĠW al
u ps
Ġfe et
ĠD r
Ġ1 7
f ace
ag ed
so le
Ġarg ue
Ġs un
Ġgu arant
Ġsal es
Ġus er
Ġb oring
Ġdanger ous
Ġassum ing
Ġg aming
Ġp le
Ġs ister
Ġdeser ve
Ġconn ect
Ġf ive
Ġrequ ired
ĠC ol
Ġcour t
Ġrec ent
Ġsp lit
ĠO ver
Ġwor ried
Ġrelig ious
Ġfun ction
ĠAct ually
Ġc ivil
Ġli kes
Ġus ers
Ġsec urity
ĠS im
Ġup on
Ġpre p
Ġ; )
Ġb ike
9 9
ĠCh ina
Ġnatur al
Ġbegin ning
Ġve h
' .
ar ian
Ġfl at
Ġign ore
.. ...
Ġl at
ĠH A
Ġstud ent
d own
Ġevery where
Ġpict ures
Ġgr ind
Ġcl ick
Ġare as
Ġcons um
ĠS ee
ĠH ar
Ġa chie
Ġsp read
Ġdoes nt
ion ally
ĠH al
Ġco ff
Ġgot ta
Ġminim um
Ġsmo ke
it or
Ġpost ing
Ġgl ass
Ġthought s
Ġwin s
Ġpres ident
Ġw ild
Ġproper ly
Ġstud ents
Ġli e
ab les
Ġal tern
Ġindust ry
Ġpers pect
ak er
Ġchang ing
Ġdown load
Ġbud get
, "
Ġc hat
I D
ĠF in
ĠD ude
en n
id ge
k a
ĠRuss ia
H A
at ures
Ġflo or
Ġ ice
Ġper haps
Ġa im
Ġre act
ĠA b
Ġcomb at
ag ing
am ent
Ġocc as
ra nd
Ġpress ure
Ġem ail
Ġt ier
Ġdid nt
Ġfin ished
ro id
om s
Ġfar m
ri age
g ers
Ġjo in
Ġact ions
Ġd in
Ġapp ly
Ġdog s
ĠSome one
Ġeffect s
u ing
Ġdro pped
Ġ& #
Ġse m
st ers
Ġqu al
Ġe arth
Ġun f
ĠApp le
u ke
Ġaut hor
y n
Ġr ough
ĠSe ems
n ight
Ġro b
Ġfl ag
Ġsc ience
Ġfix ed
ĠG l
ain s
Ġcap ital
Ġal ive
Ġem b
Ġsec ret
Ġun c
Ġenviron ment
im ately
ot t
? )
Ġim o
ill s
Ġm ount
ĠO N
Ġear lier
Ã ©
Ġcre ep
li ed
ĠL ast
Ġrepl ace
Ġste al
en ces
Ġstr ate
Ġsc r
Ġs and
an c
ĠA h
Ġcom fortable
ific ation
Ġal cohol
Ġmed ical
!! !!
ce ed
Ġpro of
Ġuni verse
Ġcrit ic
an ks
ĠI MO
m as
r s
ĠM in
Ġwebs ite
Ġp ath
ĠA D
ĠA ss
Ġb ath
ic les
ĠO ur
Ġcand id
ĠB oth
Ġi P
ĠBr it
Ġt ired
au ght
Ġprof it
Ġn ature
Ġconf irm
Ġwe ed
Ġgen uine
Ġd ry
Ġc itiz
Ġang ry
Ġsw it
Ġcr ime
Ġact ive
Ġdef end
en ing
Ġend s
it ions
ĠAust ral
Ġf ly
m g
ĠB est
is ions
he st
Ġtr ick
Ġstre ng
Ġcon d
Ġsa ving
as ure
ĠOk ay
Ġj er
Ġbl ow
Ġto w
al se
ĠA w
en ed
ĠBe ing
Ġhum ans
Ġcon sole
Ġwhen ever
Ġbat tery
Ġperspect ive
Ġr ot
Ġstat ement
Ġhear ing
id ay
Ġim age
I C
L C
Ġrep ly
Ġuse less
ĠM on
Ġess entially
ĠM ake
Ġtyp es
Ġh osp
ĠW ind
ĠT O
Ġhe at
ant ed
Ġse arch
an ch
Ġso lo
Ġupgr ade
o ices
it ter
Ġcop s
Ġact ing
Ġpolic y
Ġwind ow
ĠThe ir
ĠF e
Ġb ow
ĠR o
Ġdownvot ed
Ġbehav ior
ot a
Ġdisapp oint
ren ch
Ġcompet itive
Ġbu dd
Ġp ark
r is
Ġe arn
Ġv ar
ad ing
Ġle gend
ou nce
Ġp air
U T
ĠD ark
Ġdem and
if ying
Ġcr ow
Ġkill s
Ġsp orts
Ġdevelop ment
Ġe le
ĠL ove
Ġr ing
Ġsome body
m et
ĠC ong
Ġh its
" ?
z en
re es
ines e
Ġun like
ord s
c an
icul arly
Ġanim als
u nder
Ġl az
Ġ~ ~
re al
D R
Ġlog ic
Ġfre sh
Ġcoff ee
ĠC har
Ġpolit ics
Ġlar ger
g en
Ġval id
ĠDem ocr
ĠC ur
A C
Ġnecess arily
ĠFU CK
Ġsh ield
u u
Ġshow ed
Ġt em
han ge
Ġdr unk
g ar
Ġ7 0
Ġend ing
Ġpull ed
ĠChrist ian
ag n
il es
Ġpro ve
Ġam ong
i ving
ĠK ing
Ġfre qu
r ict
Ġtra il
os h
Ġv ia
Ġdep ending
Ġsepar ate
Ġsc ream
Ġg ym
ĠWor ld
Ġdr inking
ĠT ake
Ġc art
p et
Ġmove ment
Ġm er
i ven
Ġsha me
Ġl ic
al es
g a
Ġd aughter
n ces
ĠF ace
ri be
ĠH oly
Ġma ster
in itely
ĠAm az
o e
Ġhar m
ac hing
at ically
b h
Ġcall s
Ġrest aur
d s
Ġc ell
im ent
Ġfigure d
ro p
l ies
Ġeffect ive
Ġplan ning
og raph
Ġr ape
Ġre action
Ġcont rib
pp y
ĠS S
t f
ĠO K
Ġincl ude
Ġn or
r ate
ĠE ither
ĠHope fully
Ġas pect
Ġg ender
ack s
ĠK ore
ĠT y
Ġeduc ation
Ġrequ est
ar m
Ġtal ked
Ġpre m
Ġy a
Ġn ational
Ġsome what
Ġfeel ings
Ġper cent
Ġb reat
Ġadd ing
Ġ: /
Ġcr im
Ġign or
Ġfol ks
ens ion
A L
Ġproduc ts
Ġt ip
Ġmo ves
F L
Ġdirect ion
Ġattack s
Ġpiss ed
k in
i ers
Ġboo st
o h
Ġvict im
Ġyour s
ĠC ons
Ġdem ocr
t ion
Ġinfl u
Ġsc ared
ĠN et
Ġlet s
Ġstr ange
sp ect
Ġsa le
Ġpl ot
ĠB ro
Ġexc use
ess ion
ĠS y
ĠBas ically
Ġsupp ose
Ġf ile
Ġ ^
ĠA T
Ġprofess ional
Ġsn ow
arb age
v iously
Ġbl ind
Ġexc lus
Ġsudden ly
Ġner f
Ġs illy
ĠDoes n
Ġt ag
u h
u y
f ield
l am
Ġfe ature
Ġt emp
i ver
Ġsc hed
Ġsh ots
Ġtra ffic
Ġclo ser
Ġspe aking
Ġgra ph
ĠB ar
Ġde let
Ġwr ote
Ġp ed
Ġt ill
Ġcor por
Ġs ides
Ġplan et
Ġuni que
Ġwe l
ĠIs n
Ġboy friend
ĠE l
ĠPerson ally
Ġstreng th
ill a
r ant
h y
al y
Ġopportun ity
ĠEx cept
ar ter
ĠA dd
ĠN orth
Ġres ources
Ġmar riage
Ġelect ion
Ġbre aking
Ġw ood
Ġst age
Ġback ground
Ġwon t
Ġkn ock
am b
Ġsoft ware
Ġstand ing
us ion
Ġopin ions
Ġhy p
an n
B A
uc e
Ġun s
Ġh ous
ic a
Ġdis g
Ġtick et
Ġtell s
ap s
Ġt iny
i ents
Ġoff ense
Ġp ub
Ġmem ory
Ġsaf ety
Ġrequire s
ĠG T
d ow
Ġgame play
am m
Ġnorm ally
om en
Ġp ool
Ġtri gg
het ic
ĠL it
ve re
Ġproper ty
i os
c ious
ĠG e
Ġrele vant
L Y
ĠW W
Ġtw e
Ġb omb
Ġsc ale
Ġmil es
Ġp atch
Ġvot ed
Ġsu mm
ĠA C
Ġfre ed
oo p
Ġcare s
Ġplat form
Ġd ying
Ġvis it
Ġw ide
Ġst ress
ĠD O
Ġoffic ial
Ġmanag er
Ġtop ic
Ġpass ed
Ġab use
Ġw ast
ĠC le
Ġplay off
ĠC r
ĠUn fortunately
Ġthous ands
ĠC or
ĠAl though
m en
Ġhope fully
Ġan x
Ġeff ic
Ġd ed
Ġpo ke
Ġenc oura
Ġfant astic
b oy
x ic
g un
ĠY ep
n ger
c are
Ġdev ice
Ġcomp lex
Ġpr ison
p ir
Ġpart icularly
Ġvot ing
Ġcent er
Ġas ide
Ġt ons
ma o
um ents
i ant
Ġcomp are
Ġst aff
Ġg arbage
Ġorig in
Ġequ al
Ġfr ame
re y
ĠA S
Ġcl ar
ĠA f
au d
Ġl oud
h ost
es tern
Ġenem ies
Ġhe ld
se qu
Ġs ix
Ġslow ly
Ġintell ig
is f
ĠH i
izz a
ĠM any
Ġob s
ĠHa ving
U S
ard ed
Ġcir cle
Ġabsolut e
ĠS outh
Ġdom in
Ġmaint ain
ĠB ern
Ġown er
ĠDid n
Ġconcern ed
Ġ <
Ġf alse
Ġc ow
Ġche st
Ġtrans fer
Ġbre ed
Ġsp oil
l in
Ġfem in
Ġun its
ust ing
Ġbut t
Ġhelp ing
Ġdri vers
Ġsuccess ful
ĠP M
Ġchick en
Ġlaz y
Ġschool s
ĠHill ary
Ġg ri
ĠP art
Ġthr owing
Ġch urch
Ġsub s
Ġcap t
Ġlet ting
Ġmur der
Ġser vers
Ġint roduc
ĠT ex
Ġh ilar
Ġcustom er
Ġun it
Ġaccur ate
c ul
Ġcirc um
Ġin n
ĠAn other
Ġfail ed
Ġbenef its
Ġh ole
Ġf ish
Ġte en
is c
Ġaut o
so ci
ĠO ut
Ġevery body
Ġcau sed
Ġdet ails
Ġmet al
Ġbecom ing
Ġal t
Ġcan cer
ir ty
Ġis nt
Ġj ack
Ġex ec
Ġhosp ital
ag ine
Ġv an
Ġton ight
Ġcomplain ing
ĠN ope
Ġany ways
Ġspe ech
Ġsystem s
Ġap olog
ĠWh ite
ĠW est
Ġmat ches
Ġgr owing
r ating
p re
f uck
g ame
ĠN ah
p oint
d a
Ġsu it
ac hes
Ġdist ance
Ġd ress
ress ive
ep end
Ġall ows
Ġdesign ed
Ġref erence
ĠN E
ĠAg ain
ĠR eg
Ġpiec es
Ġat he
Ġfe atures
Ġh ook
Ġj ail
Ġclot hes
Ġpart ner
Ġmanag ed
Ġl au
ce l
Ġre ward
i us
Ġeconom y
I G
ie f
ript ion
ac ing
Ġcut e
r an
ĠS ky
Ġsh ock
k ward
Ġter ror
Ġt ro
Ġpe ace
ĠFace book
Ġn ation
Ġcorrect ly
Ġad just
Ġdet erm
Ġviol ence
Ġyou nger
ĠM ac
AA AA
ĠP res
Y ou
om an
ha nd
Ġcheck ed
Ġfl ash
Ġown ers
ex ic
Ġsitu ations
ĠP ut
Ġg rew
?? ?
Ġsub st
Ġfore ign
ĠN Y
ud es
ĠP ol
Ġlad y
il ing
Ġgu ard
Ġ5 00
for ce
Ġmem ber
re ens
ĠS and
Ġpurcha se
Ġhit ting
Ġtur ning
ĠH ard
Ġcrow d
ha ha
ag er
Ġanim al
Ġexpect ing
or ter
Ġfriend ly
Ġrespons ible
al k
ĠA P
Ġag gress
I R
Ġapp lic
Ġmat ters
ous ly
Ġcon dition
ĠCh inese
Ġball s
u ild
Ġdet ail
ĠU s
Ġconv in
9 0
b re
ĠIm agine
Ġn ic
Ġsignific ant
Ġnet work
Ġmat h
out s
Ġint ention
Ġbon us
Ġsp ir
Ġcas ual
ĠTh ink
Ġm ir
Ġthe rap
st ood
Ġproduct ion
o v
in st
ĠUn ited
t op
Ġsa ved
Ġhig hest
Ġmet a
Ġsetting s
Ġr ank
Ġd ating
ĠT oo
d r
u k
Ġhe s
er g
Ġchallen ge
w ith
L E
Ġfav our
Ġra ise
Ġtrad ition
Ġf ired
Ġc up
Ġr ub
T H
u f
il s
Ġvar ious
ĠC omm
Ġdesc rib
Ġinvest ig
Ġloc ation
Ġbus y
Ġche m
ĠB ra
Ġachie ve
i ety
Ġex erc
Ġhat ed
l a
Ġsp ort
ĠU p
Ġfa ith
ĠM exic
R A
Ġent ertain
ili ar
O D
olog ical
ĠSomet hing
se y
Ġte ach
Ġche ese
Ġir on
Ġfl av
Ġenjoy ed
Ġstrong er
er ate
Ġest ab
ĠF ire
ĠQ B
G B
ĠC S
at ory
int on
Ġsu ic
Ġexpl an
Ġad vert
th is
l ig
Ġimp lement
Ġdi et
Ġth us
Ġb esides
Ġp ump
Ġlea ves
ĠG ame
Ġte le
ha m
Ġmill ions
ĠN A
ic ing
Ġj u
Ġsp awn
ad s
Ġinclud ed
Ġ9 9
Ġphot o
Ġemploy ees
ĠEvery thing
Ġl ying
Ġsong s
ight s
Ġne ither
ĠL o
her n
Ġhilar ious
att oo
ĠOb viously
Ġcustom ers
Ġacc om
Ġaccount s
Ġdro ps
ve red
Ġw age
Ġrel atively
Ġbu g
Ġr ain
l ist
or ge
---- ----
ĠInst ead
Ġbath room
iv ity
Ġmot iv
Ġpo ck
Ġconn ection
Ġsmo king
ict ed
Ġdec isions
ĠD an
amp les
Ġde bt
ag on
ĠP at
miss ion
ĠF un
le br
Ġh ide
co in
Ġar rest
z z
I P
Ġt act
Ġaw kward
Ġstud y
Ġt bh
Ġview s
ĠMus lim
x ual
ĠThat s
Ġpus hing
ĠS H
E C
Ġas soci
Ġw ing
Ġtr uck
pri ate
ĠWind ows
Ġwe alth
Ġfreed om
Ġtrans l
Ġher self
Ġsh own
Ġla unch
Ġdes k
Ġimm ig
Ġoff ensive
Ġhelp ful
um s
Ġpregn ant
Ġv ill
Ġun fortunately
Ġgo als
ĠJ ack
ĠI D
Ġprot est
Ġd ump
Ġl apt
an ing
5 00
Ġres ist
ĠH ad
Ġgi ant
Ġserv ices
gg ing
Ġbo ot
an cy
wh ile
Ġlo ves
ĠTH AT
Ġliber al
ĠH as
Ġha ck
Ġpolit ic
Ġbot tle
ĠK ind
arr ass
ad ed
ĠA nt
Ġad dit
1 6
Ġch oices
Ġh ol
g ly
ĠM S
as hed
Ġdefin ition
Ġacc ording
il ty
Ġcompar ison
the y
Ġex ists
Ġoppon ent
cell ent
ill ing
Ġup vot
ĠR ock
ic ated
Ġrece ived
Ġconf ir
Ġdis play
Ġappro ach
Ġg oogle
ĠM E
ĠV al
Ġneigh bor
Ġemp ty
Ġgener ation
ri g
Ġexperien ced
Ġm ut
Ġar ms
r ound
ĠY ea
Ġr arely
Ġclo sed
Ġf lying
Ġs ac
Ġw ed
Ġguess ing
Ġn a
ĠT ime
Ġjo kes
Ġe th
Ġlight s
ĠNo body
ĠM o
Ġfact or
ĠBern ie
Ġatt itude
end o
Ġtreat ed
Ġpun ish
Ġse at
f r
Ġinter act
igh ter
ens es
Ġcor rupt
ĠG old
ĠD ay
Ġpr oud
ĠM or
Ġp it
ar ma
Ġsp am
Ġpr int
Ġdef ensive
e k
Ġtour nam
Ġset up
Ġw a
Ġcr ack
Ġcor ner
ruct ion
Ġt ast
Ġp icking
b an
Ġtechn ically
Ġsha pe
ĠO F
Ġ2 1
ĠGerman y
C H
Ġhe y
ĠM ag
Ġ3 00
Ġput s
Ġset s
Ġsc ient
Ġemb arrass
Ġt attoo
Ġbe ar
ĠT ell
ort ion
ur d
Ġir re
Ġsh oes
Ġpart ies
Ġbudd y
ĠUS A
Ġlisten ing
Ġn amed
ĠSec ond
ĠAustral ia
Ġfl aw
Ġany body
ĠB en
s he
Ġma ps
ĠSt op
Ġthrough out
ðŁ ĺ
ar a
Ġconserv ative
Ġpre f
ĠM et
ec k
Ġscen ario
Ġst ation
ĠTw o
iz es
t t
ĠH it
Ġcompet ition
Ġhero es
Ġt ips
Ġstr uct
Ġlead er
Ġke ys
Ġp izza
LL Y
ĠPer haps
Ġph ones
pt ion
ĠB re
Ġsat isf
Ġfight s
Ġsusp ect
Ġhead s
Ġdoll ar
Ġopen ing
Ġchan ces
ro c
Ġtechn ology
ĠJapan ese
ĠDef initely
ĠA LL
Ġcom bo
Ġcl im
Ġre ve
ĠT L
Ġco vered
Ġt ree
D S
in ter
Ġstat us
Ġsc ary
Ġt aught
ĠC all
Ġad op
Ġfill ed
act ly
ĠCl inton
ĠT S
Ġmob ile
Ġwork ers
Ġattract ive
ĠE ast
Ġinst ance
Ġmem e
ĠApp arently
Ġco ach
Ġfin an
Ġdep art
Ġleg s
Ġhundred s
Ġce lebr
Ġ \
Ġsk y
ĠD LC
Ġstrate gy
gg ed
Ġnec k
Ġwal ked
i que
ent ial
Ġprom ot
Ġopt im
Ġdeal ing
ĠM ad
Ġbring ing
Ġdisappoint ed
Ġpl ans
ĠAmaz on
ro s
F C
Ġsp in
M A
Ġste am
ĠC ont
Ġprim ary
ĠD C
Ġgenuine ly
ĠiP h
i able
ĠX box
ĠP oke
ĠP ar
Ġro ot
Ġhad n
Ġsurv ive
Ġsurpr ise
Ġs ection
ĠR y
Ġp ha
h old
eng th
ĠH mm
ĠChrist mas
Ġr at
Ġed ge
Ġgr ade
Ġdin ner
ĠInt erest
ĠJ ew
Ġde l
Ġar ri
Ġmil k
ol ic
Ġgrad u
ĠB B
Ġdem on
ĠRem ember
i ance
Ġcomp lic
ĠSh it
Ġdeb ate
Ġt ight
ber t
ĠTh ough
Ġsha r
Ġcomm and
1 4
Ġt all
Ġcont ain
Ġcap able
Ġne ut
Ġmur d
Ġfor mer
Ġinn oc
Ġanx iety
ĠH igh
Ġj our
Ġbill ion
d on
Ġsa ke
a ven
i ots
Ġincred ible
ac ement
Ġad min
v l
ĠR ob
ĠTex as
I M
Ġst om
Ġmanage ment
v a
ĠYou T
Ġequ ip
* ,
ĠP o
if orn
Ġchan nel
Ġmiss ion
Ġr if
k et
ĠR es
Ġind epend
Ġab ilities
Ġthere fore
ĠB o
I t
ra el
Ġgu ilty
p ha
Ġpain t
on ed
li x
Ġextrem e
Ġqu iet
ic ate
Ġmechan ics
Ġtyp ically
Ġcy cle
Ġmon ster
Ġexp ans
ut ed
Ġboy s
Ġan ime
Ġv ast
ĠE arth
so ft
Ġfact s
Ġtreat ment
t ies
Ġarm y
Ġw ow
__ __
Ġinv ent
Ġ ing
as hing
b ow
Ġlaw y
T h
ĠD es
Ġheav ily
Ġconst ant
Ġre ven
Ġcitiz ens
Ġ Â
Ġass ist
Ġc ities
Ġcha in
ĠAny way
ĠT ur
Ġp in
Ġg e
Ġat m
w ood
I LL
Ġdep end
j a
r at
ĠO S
Ġw it
Ġrac ism
Ġemot ional
Ġw ake
Ġwar m
in ate
S t
Ġcon sequ
Ġ2 2
air s
int endo
Ġseason s
Ġwind ows
u pp
Ġsha ring
] (
ĠW o
Ġass ault
Ġv ir
Ġgreat est
Ġun lock
um ps
Ġen s
Ġfam iliar
E M
al ty
Ġstore s
Ġm ate
Ġch ose
Ġlo ot
Ġexplan ation
p es
ĠT or
id den
Ġepis odes
Ġpotent ially
m ark
T F
ĠN FL
Ġlock ed
Ġcontroll er
he red
ĠC ity
Ġbre aks
ĠM od
Ġwel come
Ġent er
ĠE d
Ġus ual
Ġrec all
Ġchamp ions
Ġk ing
ĠCanad ian
e ven
ab s
Ġd ies
Ġ4 5
ne w
Ġsh irt
and a
Ġpo ll
ĠD ec
Ġj e
i am
ay ing
Ġbas is
Ġdis p
Ġst ated
Ġveh icle
Ġ3 5
Ġsent ence
ill ed
Ġc ate
ant ic
Ġsupp ly
Ġr ates
ĠS an
ĠM id
ĠN O
Ġmeet ing
Ġfinan cial
Ġsh ift
as m
Ġdis like
oun ced
Ġbro ad
Ġref lect
e gr
ĠP et
A D
ĠM a
ep t
Ġtrigg er
Ġter r
Ġcandid ate
Ġra ised
Ġ100 0
Ġdoc ument
ot ic
ĠS ad
Ġm ac
Ġf ro
Ġwe b
uf act
Ġpull ing
v in
Ġfl ow
ĠM ed
Ġf ool
ĠO p
Ġsub sc
Ġp ants
g u
Ġref ere
ĠSt ate
in ated
Ġb ac
Ġh on
Ġg if
Ġpl astic
Ġunder stood
Ġfollow ed
ĠP v
or ters
Ġman a
Ġclaim s
b ar
ĠT it
are s
at o
Ġz one
ĠEx actly
ĠE S
b el
Ġdeser ves
Ġaddit ional
iforn ia
n es
ĠChe ck
Ġh ung
ĠW ars
y y
r ange
Ġocc ur
ing e
in ct
Ġapp eal
d ra
Ġl ately
Ġrece ive
ĠE VER
Ġc os
Ġcry ing
D on
Ġcreat ing
Ġst ack
Ġtick ets
Ġperson ality
ĠLe ague
Ġg am
it ar
b ur
Ġbel ong
Ġn arr
ĠL A
Ġsc ript
Ġar c
k n
ĠP al
Ġdec ks
Ġopp osed
Ġreve al
ĠOther wise
ra st
Ġstand ards
Ġansw ers
Ġwhe el
Ġtest ing
Ġhard ware
le ar
ĠM ight
Ġtr ump
Ġn ur
Ġl unch
Ġref use
ĠYouT ube
Ġp ic
Ġt or
Ġl ed
ĠG ive
ĠS l
Ġdestroy ed
Ġto xic
Ġsal t
Ġrout e
em ents
id a
Ġautom atically
Ġu gly
Ġche cking
og ue
ĠRuss ian
i vers
Ġth in
Ġoff ered
Ġd y
ad a
Ġregul arly
ĠJ e
Ġphot os
Ġsw ear
Ġvot es
ul ate
Ġper man
Ġaccom pl
m ates
1 3
Ġcut ting
he m
. *
Ġint ended
Ġind eed
Ġp icks
Ġdep ression
Ġj un
Ġhy pe
ot y
Ġben ch
Ġopen ed
Ġtrad ing
ĠAf ric
Ġin put
Ġown ed
il os
Ġt v
ĠD av
Ġsign ed
Ġmed ic
Ġw ise
Ġaud ience
or rect
Ġexperien ces
ĠP R
ĠA ir
f lix
ug s
Ġdra g
Ġc able
Ġplan e
Ġrepl aced
Ġc am
Ġlapt op
Ġlead ers
ĠDra gon
Ġt anks
Ġord ered
T S
ĠL eg
ĠS n
Ġapart ment
Ġconf l
Ġnow here
Ġinc om
ĠI P
ĠSt ep
c ore
ĠiPh one
Ġs outh
Ġli qu
Ġrefer ring
ĠPres ident
Ġun com
ĠS pe
Ġsh ipping
Ġse vere
han t
Ġad dition
ĠR ec
Ġpass ing
ph one
Ġcre am
ĠW el
Ġb ird
ĠS ource
Ġrestaur ant
Ġstay ing
ĠBrit ish
Ġdes per
Ġkind s
Ġl ength
Ġbr own
ĠC C
Ġvi able
Ġn ut
Ġtool s
Ġtri es
ĠRe al
Ġex cellent
Ġh ob
ri er
Ġform at
ĠR ead
Ġd irty
Ġevery day
3 2
Ġexp ert
Ġb ucks
Ġdifferent ly
Ġcau sing
Ġp s
Ġdec l
Ġelect ric
ĠPoke mon
Ġfing er
lay er
Ġf uel
Ġg ift
oc ol
Ġrespons ibility
it ut
Ġinj ury
ill e
T C
Ġcate g
b b
ĠT ra
Ġman ufact
ĠT urn
ĠE v
Ġn u
Ġdo d
ol f
d om
Ġsched ule
el ine
ĠS C
Ġlet ter
. âĢĿ
Ġdown vote
ĠF all
ĠM r
ĠS am
Ġe mer
c raft
ĠTr ue
Ġt un
Ġb order
Ġreg ret
Ġche ating
Ġpret end
Ġsuper ior
ĠR EA
i ate
Ġwe ather
n ec
Ġl mao
ĠP L
Ġmain ly
ĠD M
ĠB ack
ll y
ĠY up
ĠIs rael
w atch
Ġbet a
Ġam er
Ġr ude
Ġr ating
Ġsqu ad
d es
Ġre ject
ed s
Ġyou t
ĠT om
ĠBe fore
Ġcau ses
z er
ĠP aul
Ġsurpr ising
en c
F A
Ġapp s
P G
Ġposs ibility
Ġsw ord
Ġe ast
is hes
av y
ĠP e
Ġr ow
ĠU se
ĠT ot
Ġdef ault
Ġs ke
Ġsc reens
Ġstrugg le
c ons
Ġconfir med
har d
ĠF rench
Ġr om
her s
Ġcal ories
Ġe lement
ab or
p m
Ġn uts
ĠJ im
ĠT hing
ĠB el
Ġbo at
w ord
w ing
ĠT er
Ġproduc e
Ġinflu ence
% .
Ġcl ient
Ġman ip
Ġsuic ide
Ġequ ival
ĠS il
Ġhist or
Ġsur round
Ġsp r
Ġsupport ing
ĠN az
Ġjust ify
k i
Ġs en
Ġt ap
Ġdis e
ĠJ on
ad y
Ġegg s
ĠCal ifornia
Ġconsist ent
Ġd ial
w hel
ĠF ucking
Ġsou l
Ġwin ter
h o
ĠSt art
Ġins ult
ĠN intendo
Ġbad ly
Ġru in
Ġcare ful
Ġconvin ced
ĠC ome
Ġal ot
Ġwho se
land s
Ġinst antly
Ġpartic ip
Ġmist akes
ĠSte am
ĠA R
Ġ201 6
Ġb tw
Ġret arded
Ġ !
ip ed
H H
Ġdep th
ad o
ut ch
ove red
Ġclass ic
Ġexp and
OO OO
Ġno ise
ĠNe xt
Ġphys ically
Ġcon dit
Ġsha ll
Ġhard ly
Ġat h
Ġpl ant
um ing
Ġsac r
ress ing
ig s
Ġsur ger
ĠT im
Ġdra gon
ĠH ouse
Ġfell ow
Ġl an
Ġd er
Ġthread s
st r
Ġdownvot es
ur b
ĠG reen
Ġco ck
on a
c hen
Ġf old
Ġpow ers
ul k
Ġplayoff s
ĠA I
Ġhor se
ul a
f it
1 8
Ġs ch
Ġqu ote
p art
Ġr um
ĠE m
Ġignor ant
Ġfor t
ce nd
Ġassum ed
Ġm al
Ġshow er
ĠS ol
ĠL OL
n et
ĠIs lam
Ġmot or
Ġlist ed
ĠH P
Ġpro ven
Ġran ked
Ġdisg usting
Ġs ne
Ġpoke mon
l ished
Ġb right
ha s
Ġlic ense
Ġbr ings
uc lear
Ġdesc ribe
Ġexc hange
ĠId k
ĠC PU
ĠA bs
Ġmic ro
Ġcrim inal
Ġfr anch
Ġemploy ee
Ġlead s
ci ent
Ġm ouse
Ġtre nd
cept ion
ĠIn tern
Ġsu gar
ra ge
Ġto ler
Ġfrust rating
ĠRepublic ans
Ġent it
Ġjust ice
Ġstand s
Ġsh ips
Ġrep ublic
ĠH D
Ġc ats
it ution
Ġpar king
Ġrelationship s
Ġid iots
es h
ind er
Ġassh oles
F F
Ġuni vers
Ġpo d
Ġconsist ently
Ġfant asy
ĠS P
Ġequip ment
Ġex amples
Ġli br
or ce
Ġconc lus
our s
Ġha ll
Ġfed eral
Ġreg ion
Ġr ush
Ġfl ight
Ġprof ile
Ġbirth day
ag ger
Ġsit es
r ome
Ġb od
Ġconf ident
Ġp c
Ġh ire
wh o
Ġz omb
ĠTH IS
ol ve
Ġpus hed
Ġgraph ics
Ġexist ence
Ġbelie fs
ĠU lt
ĠD S
Ġp il
Ġwonder ful
ĠH y
Ġlab el
Ġp ill
Ġkn ife
Ġinnoc ent
Ġdevelop ed
Ġpat tern
Ġaltern ative
Ġint ent
Ġcoll ection
Ġth rew
Ġappro priate
Ġfeed back
ĠS ur
ag o
Ġimp ressive
Ġthr own
Ġeconom ic
Ġpre c
f ire
ĠI ron
Ġval ues
Ġmix ed
Ġdef e
Ġh oly
ĠP ort
er k
I V
Ġfe e
Ġma il
es ter
Ġw est
ang ers
ĠS k
Ġteac hing
u able
ĠS ub
in ity
Ġa in
est s
r am
Ġapp ears
Ġdec ade
Ġath let
Ġcal cul
' ,
u ary
ol t
Ġme al
Ġsol ve
! )
Ġl ag
Ġexplain ed
Ġuncom fortable
Ġregard ing
Ġm ort
Ġinit ial
on n
Ġ â
op p
Ġpock et
Ġincre ased
ĠC L
Ġadv ance
Ġg oo
ur ies
Ġac ce
Ġmod els
ĠB it
Ġdec ades
ĠF B
Ġf asc
Ġkick ed
ĠÂ £
Ġuni versity
7 5
ĠS ou
Ġlegit imate
Ġk arma
t ain
ĠL ife
Ġint egr
Ġguarant ee
Ġrest rict
Ġprogram s
Ġ ic
Ġcom mer
) ?
ĠEng land
ip er
in ary
Ġloo se
Ġvol ume
Ġsil ver
ĠInterest ing
ĠSt ates
Ġp al
Ġst ere
Ġal right
ĠMic ro
m art
Ġcre w
Ġfil es
aa aa
Ġcondit ions
Ġhat es
Ġdun no
Ġb ound
Ġse ar
Ġreduc e
Ġp ra
Ġcol ors
Ġg ross
v est
Ġfail ure
izz ard
Ġpack age
Ġla un
Ġwed ding
ĠA L
Ġfall ing
ha el
Ġw ire
Ġsp ect
Ġfoc used
Ġd ip
Ġmon itor
ut y
Ġoffic er
ve y
uz z
3 5
ĠL ight
um an
ath y
Ġunlike ly
Ġser ve
Ġer ror
ĠD ead
id ers
Ġbe ating
Ġpack s
b a
I n
Ġsmo oth
EE EE
ĠL uck
Ġsupp orters
Ġst un
ĠM L
Ġv irt
Ġhealth care
Ġb ored
Ġspir it
b ase
Ġgreat er
Ġeffect ively
ĠD own
g ood
ĠBr own
Ġlau g
m ber
ri or
Ġw rest
Ġth ick
i ber
Ġcom ed
Ġhang ing
Ġupd ates
Ġbut ter
and er
Ġcha p
Ġminor ity
ĠL uc
ĠH app
h ouse
ĠAnd roid
en e
Ġd at
m ay
Ġpass ive
ĠB ill
Ġheal ing
Ġr am
Ġst ars
Ġte eth
Ġgo dd
p op
Ġact ively
Ġpl ate
Ġpoor ly
Ġcont r
ĠM al
ul ated
Ġhur ts
Ġsignific antly
Ġrad io
Ġkey board
Ġcom fort
ak en
w w
int s
Ġde lay
Ġbr ows
O h
Ġso le
nec ess
R S
Ġsend ing
Ġbas ket
Ġa st
Ġwar ning
Ġp unch
Ġcircum st
ĠD est
Ġa ck
ĠM O
Ġexerc ise
Ġaggress ive
Ġw et
se e
Ġc ig
or a
Ġreview s
ĠCom p
Ġtyp ical
Ġcl ue
ri a
Ġfl ip
Ġyell ow
Ġse qu
Ġaccept ed
oc king
Ġb ars
ĠA cc
Ġviol ent
Ġn ons
ĠBat tle
ĠFr iday
Ġdis s
st al
il ies
Ġlead ing
I f
ĠS un
N G
Ġtw ist
st one
Ġ )
Ġmin i
Ġequival ent
Ġdro pping
Ġaud io
Ġcon ven
l ers
ge on
here nt
Ġh ip
Ġexpans ion
Ġst orm
ab led
Ġmarket ing
Ġbu gs
Ġpro b
Ġmor al
ĠS und
Ġack now
Ġart ist
Ġcra ft
ĠM ark
r un
ast y
Ġsign s
Ġph r
V P
Ġmom ents
ell ing
Ġse es
u ge
ĠRepublic an
Ġs in
v is
le vant
ĠB ad
Ġprot ection
ash ion
Ġ- >
Ġinvest ment
Ġto ile
Ġw ave
ĠUs ually
Ġte a
Ġtem per
Ġpred ict
el ess
ĠBet ter
ĠFr ank
Ġid k
inc ip
ro g
Ġ7 5
Ġman ual
Ġchar ges
Ġgrow th
Ġfl u
ul ting
Ġf et
Ġcr ash
Ġg ar
Ġconv ince
p ost
Ġstop s
Ġesc ape
ĠDe ath
ĠI V
Ġdou che
Ġadd s
Ġmo on
ĠS U
ĠB ay
ust er
Ġpr ime
Ġbl ast
st ar
Ġf its
Ġres et
Ġstep s
Ġd im
Ġsleep ing
Ġsuggest ions
Ġall owing
Ġstri ke
id ents
re ly
Ġsal ary
.... ....
w in
Ġno se
A P
ĠG M
Ġde lic
ess ed
ĠAw esome
Ġcritic ism
ĠAl ways
Ġc ab
ĠM er
ĠC ool
Ġdr ama
Ġf irm
Ġatt acking
Ġpen is
f e
ĠD N
Ġl vl
Ġsurger y
Ġpoint ed
Ġcreep y
Ġide al
Ġhar ass
ĠA c
Ġarg uments
os es
ak ers
Ġabs urd
oun ter
d ed
n on
Ġph ilos
we ight
ĠI ll
Ġc ake
ĠC ent
Ġaccept able
Ġ @
ĠO ff
Ġgr own
Ġpos itions
Ġst ab
Ġp a
Ġme asure
f ast
Ġbat t
p ass
Ġfor ces
Ġpo inting
Ġ3 1
Ġ _
ri e
Ġsur face
Ġcomplic ated
Ġche at
Ġbelie f
ĠH un
Ġpl ain
re et
re sh
Ġdepart ment
Ġchar ged
ant a
K E
Ġeffic ient
icul ty
Ġme lee
Ġst one
: **
Ġrepe at
ĠP ark
Ġam b
Ġfavour ite
Ġve get
Ġamount s
ĠWould n
Ġyout ube
ĠW R
ĠM art
Ġbal anced
s en
Ġpl ug
c les
Ġfing ers
Ġdri ves
Ġb read
an ish
Ġmax im
Ġfam ilies
Ġ2 3
ud ing
k ers
ĠM at
it a
y l
ĠAny thing
Ġintern ational
r ough
Ġcrit ical
Ġde als
Ġoff ers
ĠC ap
s ome
ĠY ork
ac le
Ġcal m
ĠB E
Ġorigin ally
Ġlaugh ing
Ġident ity
ĠBl ue
b i
Ġ2 6
Ġpercent age
ĠAbs olut
rib ly
on ic
us hed
eal ous
Ġd udes
Ġstr ict
Ġru ined
Ġsu p
Ġdes ire
Ġrel ax
Ġb ang
b ble
Ġtra ined
w ar
m ar
ad em
ĠKore a
ĠA B
ha l
Ġvari ety
ir l
Ġchamp ion
Ġf le
ut or
Ġrecogn ize
ĠGet ting
ac c
Ġinterest s
Ġspell s
Ġbox es
Ġtradition al
Ġtal ks
Ġconsequ ences
Ġglo bal
Ġel im
Ġfe es
ĠN one
Ġor g
Ġ: -
Ġbuild s
Ġconn ected
Ġfl air
Ġmed ium
Ġer a
Ġreal istic
Ġimp ression
Ġr ig
Ġdist ract
p ool
ĠDemocr ats
Ġp ir
ĠR un
Ġsuff er
Ġno vel
f all
ern ame
us ive
oc key
ra in
ĠM il
it ation
ac ity
ĠA RE
Ġp ee
Ġdoct ors
ĠNet flix
ĠM akes
ĠM Y
Ġs ight
N o
Ġunf air
ĠMic hael
HA HA
Ġrec ru
Ġpha se
or ida
Ġaccident ally
ic ious
j i
Ġsh iny
Ġval uable
g ency
Ġsl ot
Ġb uck
ĠO ld
an cing
Ġtournam ent
b orn
Ġclo s
Ġadult s
ĠEurope an
ĠU nder
Ġcommer cial
Ġk iss
ĠL ots
Ġr age
Ġwar rant
Ġqu arter
ĠB S
ĠB ur
Ġdist rib
ĠY et
ĠL ooking
Ġpr incip
Ġenjoy ing
ac he
ĠC oll
all ow
Ġre wards
]( /
Ġthem e
ĠF ox
us hing
Ġdiff iculty
Ġdi agn
ĠGl ad
Ġs ources
Ġc ert
Ġhe ight
Ġdev s
3 00
Ġn uclear
Ġw tf
Ġwas h
Ġdef ending
ret ch
Ġ1 50
Ġm ile
ing er
Ġst able
Ġc oo
Ġt one
ĠWith out
ĠBat man
ĠF OR
pir acy
Ġco ins
Ġpr on
et ic
Ġsl a
Ġfranch ise
Ġorgan ization
ur a
ĠC H
Ġg host
Ġc ous
ust ed
Ġun necess
ĠU nt
Ġteacher s
x y
Ġtest s
ĠW he
Ġfrequ ently
Ġp ics
or able
Ġtrail er
ĠHal f
Ġinst ant
ĠT ech
1 7
Ġag reed
Ġw ars
ĠG O
Ġconf idence
Ġad s
ĠA lex
h ile
P C
ĠS M
ĠH E
Ġshe ll
Ġcom ic
Ġconfl ict
Ġstay ed
ĠC han
Ġrid ing
Ġscream ing
Ġch rist
Ġincre asing
st ream
Ġco in
Ġprep ared
f ree
ist ics
ĠB F
Ġbel t
ud d
Ġleg ally
Ġfor g
Ġarg uing
Ġtri al
Ġmen u
on ly
Ġlab or
Ġb ast
Ġpat ient
Ġnot es
1 9
ĠM C
Ġbl ank
Ġset tle
Ġsw ing
ĠE nd
ĠW ay
Ġpoint less
Ġdisc ount
ĠSand ers
Ġ4 00
Ġsupport s
Ġexist ing
Ġdev ices
ĠInd ian
Ġplan ned
ĠE ver
ĠT ri
ĠAg reed
Ġup s
Ġfund ament
al ax
Ġp uss
oll y
ĠL O
Ġmus cle
Ġt ear
ĠGu ess
al ing
Ġspec ies
Ġpolitic ians
ĠM iss
Ġins p
S S
Ġli es
Ġat e
ust ain
Ġelse where
Ġnatur ally
u ous
or age
Ġbe ast
ĠAb out
Ġret ail
Ġp ounds
Ġun able
R R
L D
ĠEVER Y
Ġl in
ĠFr ance
ĠMicro soft
v y
ic ial
ĠUn i
4 5
Ġcompet e
ĠI r
ĠAr t
Ġv ision
ĠQ ue
st on
l ines
Ġma st
Ġwall s
sh ot
ĠM ine
Ġd ust
b on
ĠB all
Ġlawy er
Ġpr ay
tern al
Ġdiffere nces
Ġexper iment
ĠL ong
ĠS ch
Ġroll ing
Ġn orth
app ed
r ants
Ġlo an
Ġfil ter
ĠT R
Ġtrans ition
ol ved
Ġpl aced
Ġpolic ies
Ġfre aking
Ġ2 8
Ġr ise
Ġscrew ed
Ġdou b
Ġport ion
Ġwho ever
ĠF F
Ġguarant eed
Ġme as
h ot
Ġbr ut
Ġun re
Ġco ast
Ġsy m
ĠC B
W hat
n al
Ġmiss ions
Ġv oc
ĠJ an
ist ration
Ġded icated
Ġreport ed
Ġtoile t
Ġscen es
r um
Ġb ri
Ġto ward
v able
Ġc a
Ġneigh b
Ġsy mb
com ing
Ġbab ies
n n
ĠIn f
Ġsem i
Ġmach ines
Ġstere oty
Ġ3 2
Ġdevelop ers
Ġext ent
y es
... "
t here
ul ations
Ġnarr ative
as hes
Ġmy th
in ating
ĠMar io
j o
ĠD a
ĠM A
ĠT op
Ġmess ages
z a
Ġbill s
ĠAs ian
Ġprom ise
ing ly
Ġupd ated
ĠMc C
Ġadv oc
ĠâĢ ĺ
Ġg ap
in ite
ic ago
Ġirre levant
Ġad m
Ġsp ots
ĠD en
ur t
Ġfall s
U ST
ĠGo ing
Ġst retch
Ġt ort
b ro
Ġlo ving
ig an
ĠW atch
Ġg ang
ic y
as p
ĠZ e
atur day
Ġro ster
orm al
Ġact s
Ġf ashion
o very
Ġc od
Ġbull et
Ġsk ip
Ġstop ping
Ġup vote
Ġnons ense
P N
ĠE mp
Ġconf using
Ġsw im
Ġam mo
ĠF A
Ġh idden
ĠV eg
Ġord ers
Ġour selves
Ġeng age
ĠBl ood
ĠSund ay
ys is
ro l
Ġrepe ated
Ġneighbor hood
T A
Ġrout ine
Ġactiv ity
ut o
Ġphilos oph
Ġdrink s
Ġdi am
ist ically
oc ks
Ġ2 000
Ġrep ut
i at
Ġj ealous
Ġdescrib ed
Ġpo ison
Ġu pper
Ġwall et
Ġtit les
I A
Ġclo ck
Ġaw hile
ĠP ower
Ġs an
Ġbreat h
au s
ĠT od
ub s
Ġdeg rees
Ġdelet e
Ġfre ak
Ġas ks
Ġblo cks
Ġen force
Ġequ ally
Ġvers ions
Ġfar ming
ĠS A
Ġsuff ering
Ġsand w
2 2
ĠC at
ĠAl most
u ana
Ġwhat s
ond on
W e
p ret
um er
ic an
Ġbow l
ath olic
v ille
Ġkit chen
b et
Ġtre es
Ġentit led
Ġbur st
ĠReg ard
ag s
Ġfil ms
Ġhome less
ren cy
Ġup load
Ġoccas ionally
Ġg ig
G A
ĠJ ames
Ġinc ent
s ha
Ġult imately
ĠV R
h ib
Ġor ange
Ġpass ion
Ġf lex
Ġab and
Ġsk ins
ĠK o
ĠE X
Ġtrans port
Ġapp lied
ad er
I ON
r r
Ġneut ral
. **
Ġrepl acement
ĠC D
ĠJo e
Ġsc am
Ġencoura ge
ĠP ay
Ġt ab
Ġr ounds
Ġcha ir
Ġtest ed
Ġnight m
Ġbag s
ĠM ax
Ġfam ous
av a
Ġt ied
ĠN ight
Ġt ape
Ġdig ital
ĠG PU
Ġl aid
Ġthous and
Ġ Ì
Ġvot ers
Ġass ign
Ġt ie
ĠN or
Ġprov ided
ĠAN Y
ow nt
y e
ain t
Ġhy per
Ġac qu
k o
y a
Ġsm ile
Ġrough ly
Ġret ire
Ġd ur
ĠHit ler
ond ay
Ġw estern
Ġtechn ical
E O
Ġan gle
ond er
lo s
Ġch ill
ĠFl orida
ĠN BA
Ġann ounce
ĠLit erally
Ġexclus ive
rel ated
ĠAbsolut ely
Ġcomb ined
Ġoff ended
ON E
Ġju ice
Ġstrugg ling
Ġcl oud
ĠFin ally
ĠUnt il
Ġc ooking
Ġsuggest ed
Ġ201 5
i ation
ri an
Ġflav or
Ġadv ent
Ġn om
b ecause
ĠL ord
ri ors
U U
ĠR E
Ġind ic
Ġexplo s
Ġinstall ed
ĠAl right
r id
Ġf ucks
Ġhum or
l ook
Ġhous es
ĠU N
Ġthere s
Ġsy n
Ġus ername
Ġsha red
ĠL in
Ġbot hered
G E
in i
Ġs ect
ĠI M
Ġ10 80
Ġstruct ure
l or
Ġex ha
i qu
Ġsuggest ion
Ġtherap y
Ġexcept ion
Ġsc an
ĠK n
l ife
ĠC ra
Ġworld s
Ġhyp ocr
er ation
Ġrif le
Ġclar ify
Ġcommit ted
Ġsh if
ĠD i
p ting
ir ts
Ġr ational
Ġindividual s
g ins
y ear
p a
h r
st e
Ġma nd
Ġfun ct
ph ones
Ġ q
ĠI ve
Ġdiv ision
H T
Ġb um
lo c
ĠJ er
Ġve nd
Ġmult i
Ġs arc
app ing
Ġtow er
r ats
Ġel ite
Ġto ss
Don ald
Ġth umb
Ġremind s
Ġoff ering
Ġd ict
P P
re ts
Ġlo ses
ĠI I
Ġprop ag
Ġover whel
ĠM en
Ġco verage
Ġste el
ap ers
ER E
ĠN C
ĠDis ney
Ġjump ing
Ġpro ceed
v ity
Ġhand ed
Ġafter wards
Ġr aw
Ġgu ide
ĠR el
w r
Ġl as
Ġsym pt
le g
Ġdis h
Ġbi as
Ġhun ting
ĠIntern et
il ed
S E
Ġvis ual
Ġbod ies
e very
Ġkill er
Ġsy mp
ĠS en
Ġlegend ary
Ġlat est
Ġcomb ination
Ġcut s
Ġproject s
Ġa x
ĠM M
Ġ Ã
af e
Ġrel iable
Ġimpro ved
ĠP ost
Ġback wards
e qu
Ġjo king
Ġut ter
ad ays
Ġcorpor ate
ĠB ell
Ġdesc ription
ct or
Ġhous ing
Ġdo ors
lic it
ĠM el
ind s
ĠPv P
it t
ĠH R
Ġsw ap
ĠR B
Ġsp ray
rem e
Ġ2 7
im m
ĠJ ones
may be
Ġ201 4
ĠF ree
Ġab ortion
Ġn ative
Ġpay s
Ġexp ress
ĠB L
at tle
Ġcomp rom
c s
Ġre ly
Ġdise ase
Ġ201 7
Ġatt end
Ġstom ach
Ġlog ical
Ġgu ild
ĠHell o
Ġpay ment
ha b
alax y
Ġloo p
Ġpain ful
Ġinc orrect
Ġsha dow
Ġbre ast
Ġintellig ent
Ġjun gle
ĠCh icago
kn own
Ġfor th
Th is
om ed
ĠThing s
se ason
Ġveh icles
Ġrandom ly
os is
Ġins an
et t
ut ing
Ġsex y
ĠR om
k u
Ġdelic ious
er ve
ĠI G
Ġclean ing
Ġent ry
ard en
Ġr ip
ĠC AN
Ġst orage
ĠD PS
Ġsure ly
Ġdeli ver
s m
Ġshock ed
ĠW E
Ġswit ched
Ġcontro vers
Ġmon sters
ĠD E
Ġbelie ved
Ġwit ness
Ġro omm
ĠD el
Ġal ien
Ġliqu id
an o
ĠF C
Ġbasket ball
ĠS ony
Ġjer k
Ġyou re
Ġinclud es
p ower
ĠM ike
Ġexc iting
Ġf ought
Ġn erv
Ġment ally
Ġsort s
Ġart icles
ĠE h
Ġw re
ĠH el
Ġha bit
Ġlibr ary
ad ium
ĠT re
igh ters
Ġden y
ill er
U R
et her
Ġche cks
Ġmultip layer
ĠDep ends
Ġpunish ment
ĠF ar
ĠBe en
Ġself ish
re ally
s l
be ll
ocol ate
Ġcommun ication
Ġdelet ed
Ġcircumst ances
ĠL OT
p an
Ġreal ise
Ġmechan ic
Ġf ighter
Ġsub mit
ip es
Ġult imate
ĠInd ia
** .
Ġf art
Ġodd s
Ġsuck ed
ĠB ow
s k
f ting
Ġrep air
Ġatt ached
Ġfr uit
Ġta il
p ol
it z
re spect
Ġwast ed
Ġattack ed
Ġmed i
Ġexpect ations
Ġgu itar
Ġgod s
ĠE A
ist ol
ĠAt t
Ġref used
out hern
ĠV er
ist ent
Ġarrest ed
or g
in als
Ġpro s
Ġ `
Ġface book
f ord
ab y
n ame
is er
m ind
Ġexplain ing
Ġhold s
ĠHal o
Ġc red
2 4
Ġcont est
Ġreason ing
ose xual
Ġy ea
ist ry
Ġannoy ed
Ġexist ed
ĠB UT
ĠSe ason
Ġt ack
in n
Ġcarry ing
Ġcreat ive
Ġhigh light
Ġcr is
Ġ ive
Ġve gan
. ,
Ġswe at
Ġqu ot
ĠCur rent
Ġindepend ent
ĠB esides
Ġpr ote
Ġintellig ence
Ġsa uce
f ect
g ic
l ord
Ġbur ning
Ġv en
Ġadd ict
Ġclaim ing
ĠM P
n ic
Ġdep ressed
Ġvac c
ĠC A
ĠM ur
ĠS qu
pl ace
Ġr ang
Ġd irt
ĠL ondon
Ġprior ity
ĠB ob
Ġpat hetic
o ken
Ġmar ry
Ġpod cast
Ġwhere as
Ġinst ruct
e em
Ġhot el
Ġh ockey
c ont
ĠSm ith
ĠB uy
Ġn ail
Ġs ustain
Ġh oles
Ġaff ected
ship s
ĠD un
Ġb ump
Ġl ore
Ġcult ural
P A
Ġun w
Ġign oring
Ġman ner
Ġtra p
w l
Ġint ense
is l
ev it
Ġv ent
re ement
Ġbe gan
ĠO R
Ġback up
end ers
Ġengine ering
! ?
g l
ĠTe am
Ġsn ap
Ġsim pl
Ġrem em
Ġd ownt
a way
e en
ĠFUCK ING
z il
) :
Ġadv anced
Ġp ink
Ġunnecess ary
ou b
Ġnerv ous
Ġemer gency
ĠT IL
ĠDe v
Ġanal og
Ġsh out
ams ung
Ġgodd amn
ĠS K
Ġv ag
Ġpriv ile
wh y
ĠN S
Ġex am
ĠH aw
ĠB ull
es pecially
ul f
ĠG OP
Ġsp ring
Ġsc ar
Ġshop ping
Ġb ite
Ġlink s
Ġlif est
Ġinj ured
Ġcons piracy
A nd
et er
os en
Ġkid ding
ou ch
ĠA v
Ġsold iers
Ġbl own
C E
ol ves
en a
Ġmem es
Ġsad ly
Ġag es
Ġp u
G O
Ġmake up
Ġw ra
i el
Ġwould nt
Ġaccompl ish
uck y
ĠL S
cl ass
Ġrac es
Ġcou p
Ġbusiness es
Ġl ift
ac o
ĠR on
ĠDest iny
ĠCong rats
ĠI ce
ĠW at
Ġbehav i
Ġpl ants
Ġsp l
Ġse ed
Ġcr imes
Ġathe ist
Ġelect ed
Ġimp ressed
Ġobject ive
Ġp ace
um ble
Ġsl ower
Ġ201 8
Ġcent ral
ĠTr ans
Ġperman ent
ĠG ra
Ġchem ical
ĠS al
Ġ* **
Ġre ached
ĠT D
Ġob lig
Ġar ch
ch o
Ġd u
Ġp itch
ĠTw itter
ce an
Ġemot ions
ony m
ill ion
ĠIn c
Ġep ic
Ġpur s
Ġg ather
Ġr ul
Ġy ard
ĠE p
Ġinter pret
Ġtw itter
Ġcomp ens
Ġdisc overed
ĠH am
Ġshe l
Ġrep orts
r ick
Ġs na
Ġin evit
Ġquest s
ograph y
Ġp ad
ĠF ind
Ġcompar ing
Ġcig are
ĠB C
cher s
ĠA F
Ġreven ue
Ġill ness
Ġin herent
ĠSp ec
Ġad apt
ĠS aturday
ĠT B
Ġcons ent
Ġsumm on
Ġc uz
im p
less ly
Ġstay s
Ġremo ving
p arent
Ġus age
Ġvac ation
Ġnew er
Ġlangu ages
Ġclos est
ĠNot e
Ġlaug hed
ĠG rand
Ġh i
Ġstream ing
Ġag ent
Ġacc ent
Ġapp lies
ĠW TF
ĠN H
Ġfan cy
it ors
ik i
Ġcap acity
ĠK night
Ġn aked
Ġfuck in
stand ing
Ġass ass
Ġann ounced
Ġg all
Ġapp le
ff ect
Ġj unk
Ġbo ots
ĠF air
ĠT al
ĠI mp
inst all
ĠHar ry
Ġfor cing
Ġan ger
Ġdeli very
Ġsymb ol
ĠL a
Ġprem ium
Ġsens itive
Ġmess ed
ha w
Ġsuc ceed
duc t
f un
ĠH or
ĠDav id
ĠF PS
b ad
ore s
ĠSu pp
ĠREA LLY
Ġbuild ings
ï ¸
Ġdiam ond
ou l
ĠCh ris
Ġdraw ing
Ġapplic ation
Ġcons cious
ï¸ ı
ĠB oy
Ġcontin ues
Ġless on
m at
ld er
ut ions
Ġc ens
Ġshould er
Ġfr ank
Ġt il
ĠChrist ians
Ġsoon er
Ġapp oint
ro at
Ġsc he
ost on
we et
Ġdec re
en ance
cc er
ĠM ass
Ġattract ed
r as
ĠQu est
Ġsupport ed
che ck
h i
Ġtwe et
ol en
Ġboss es
Ġs ir
Ġk et
ill iant
ĠK en
Ġas leep
ere nt
Ġbelie ves
Ġhor ror
Ġv ap
o or
Ġh unt
b its
ĠS uch
Ġchar ging
ĠI F
Ġcap s
Ġdevelop er
emp loy
Ġconclus ion
Ġteam mates
os ition
Ġcomp on
Ġ ..
ĠUS B
ĠWel come
ĠSp anish
Ġcomput ers
ĠU gh
hh hh
act ions
Ġhar sh
Ġpres ence
Ġs i
l ings
4 00
ij uana
Ġpuss y
Ġintern al
Ġign ored
Ġment ality
ed i
ĠO C
Ġshar p
Ġhuman ity
Ġens ure
ist an
l aw
Ġele ments
Ġident ify
Ġpen alty
Ġ^^ ^
ĠAs k
Ġmaterial s
Ġpres c
ĠMe an
ial s
Ġlim its
oo o
ĠBl izzard
ĠSp ace
Ġlow est
Ġdream s
Ġinc ident
Ġclot hing
al ed
Ġhom es
Ġd ual
Ġprev iously
if ice
ĠG un
ĠL aw
Ġw ine
ĠB R
ĠAt l
T ER
os ing
Ġ1 20
Ġis land
ĠM onday
Ġneg ot
Ġcand y
c han
Ġphys ics
ĠNY C
ĠO ct
Ġb ond
Ġex cess
Ġpass es
er able
Ġcl ip
ĠE V
ĠMuslim s
Ġst y
ã ģ
ĠW all
Ġstrong ly
ke ep
N N
g ment
Ġlo b
ol a
ĠAM A
Ġswit ching
Ġmar ijuana
r ont
Ġcry pt
Ġsteal ing
ĠF ed
Ġp ages
Ġgold en
Ġqu ant
Ġhard est
Ġhob by
om y
Ġdy nam
Ġout come
ee z
un te
Ġd ps
ĠE vent
o inting
or al
Ġbe ll
ess ions
i ge
Ġb om
ĠW ii
Ġrespons es
ĠNe ed
iven ess
Ġse a
âĢ Ķ
ĠFun ny
et ime
ain e
Ġdeterm ine
ri ve
ĠDon ald
enc ies
Ġconc ent
v an
Ġclub s
Ġse ats
e ared
Ġbr idge
Ġro les
ĠW ere
ĠLe gend
ĠR oman
Ġins ist
Ġcl imate
Ġinvol ve
ĠS ay
m ate
ĠFor ce
ĠCha mp
l iv
Ġmind s
Ġall eg
ĠCons idering
ĠIS IS
Ġpure ly
Ġfund s
c ar
Ġli king
Ġble ed
Ġv ul
Ġmaint enance
Ġtrad ed
Ġcateg ory
nd a
ĠS F
Ġfind s
Ġmem ories
Ġlink ed
Ġtast es
am i
abor ate
Ġpropag anda
Ġrec over
ĠM aster
Ġtrack s
ĠB al
wor ld
Ġd ance
ĠWo W
Ġinvestig ation
Ġpract ically
Ġg ate
Ġassoci ated
Ġm ood
ak a
Ġ^^ ^^
as ks
w al
ĠM ich
ĠB oston
Ġfact ory
Ġelect ron
p ay
cl uding
Ġmin s
Ġcur rency
Ġare na
if ies
Ġdro ve
ĠHa ven
Ġde lus
ĠRy an
og s
Ġ19 9
ĠFall out
Ġconcern s
Ġstra w
Ġincre ases
ĠWhat ever
Ġh ired
Ġsuggest ing
Ġcontrol s
Ġapolog ize
Ġbreak fast
Ġfund ing
Ġd uty
Ġart ists
Ġv ague
ĠS um
ĠCl ass
Ġf aces
Ġun cle
Ġoppon ents
Ġestab lish
ll ing
Ġref und
Ġc unt
eg a
Ġr ant
Ġch ip
Ġrel ative
et te
Ġble w
Ġbe ef
Ġfor ms
** *
i as
ĠW r
ont o
Ġjo y
Ġac id
Ġmy ster
Ġwe lf
Ġdri ven
m od
Ġbase ball
Ġw ha
ag ues
Ġmir ror
Ġn asty
Ġpro ced
v i
Ġins ight
Ġwelf are
Ġpil ot
is ters
Ġlat ter
ien cy
Ġshot gun
amm ar
Ġdo zen
Ġun ion
Ġcoll ap
p u
H e
Ġcapital ism
ĠPr ot
v p
Ġh o
Ġmot ion
ed it
ir c
Ġcomp at
Ġfac ing
Ġfor um
Ġadmit ted
ĠAn ge
Ġpost er
ific ations
Ġjour nal
.... ..
Ġpass word
Ġrepl ies
Ġw ipe
hing ton
Ġdisc rim
Ġexpl ore
om in
wor ks
ĠKind a
ĠH ot
Ġaspect s
ĠMc Donald
ĠJ ud
if orm
Ġbri ef
Ġrecord s
Ġne at
Ġbeat en
ĠSh ow
Ġremain ing
as ant
Ġhung ry
Ġh ill
ĠC ry
Ġkn ee
ĠGe orge
Ġbu bble
Ġout put
ĠD ad
Ġdemocr acy
n b
it ute
p ack
ruct ure
Ġact or
w as
Ġsh r
c har
ĠE ach
king s
r ors
ĠMag ic
Ġr amp
Ġwas nt
Ġleg isl
âĢĿ .
le vel
Ġob tain
Ġp eop
Ġgener ic
Ġanim ation
Ġpregn ancy
Ġo m
Ġrecommend ed
ĠA A
Ġch ocolate
ios ity
Ġo l
ink s
ĠRegard less
Ġy ards
Ġbl ade
ĠMexic o
Ġwe igh
ĠP ot
ĠM att
Ġminim al
Ġhand led
om a
Ġany time
Ġ9 5
ord ers
ĠC ru
Ġdis miss
Ġnow adays
ĠB ush
ĠS pr
Ġ3 6
ost er
Ġpart ners
ĠL I
if i
Ġe ars
ĠH U
Ġengine er
Ġac adem
y al
Ġcol our
Ġrequire ments
ĠU h
Ġlarge ly
Ġpro spect
Ġbl ah
Ġdeser ved
Ġhat ing
ĠTit an
c il
ĠTS M
Ġtim ing
Ġwh om
Ġbi ased
Ġcow ork
i ating
Ġtemp or
p ow
Ġg ro
ĠD am
Ġt ask
Ġdr am
Ġjo ined
ĠT ar
ee ee
s omet
ĠP O
Ġprote in
pop ular
w hen
Ġansw ered
Ġj ung
Ġque ue
b ased
Ġsal ty
Ġprogram ming
ĠMean while
Ġstar ter
Ġintroduc ed
Ġpract ical
Ġ201 2
Ġappear ance
ĠSc ott
Ġst adium
c ut
Ġlan es
Ġle an
ĠHapp y
bel ie
Ġst olen
ĠL ou
Ġn ar
ĠH ero
ĠSad ly
Ġal pha
Ġm ild
Ġmanufact ure
Ġdis respect
Ġ2 50
Ġsec ure
n els
Ġch ips
v ision
br on
3 3
Ġrat io
Ġstr anger
ĠM ars
ag ram
Ġpref erence
Ġf ps
ĠC atholic
ĠP A
ĠR od
] ]
ĠWhe ther
Ġcount s
Ġmis under
Ġsp are
Ġreput ation
Ġweak ness
Ġcamp us
Ġbit ter
ĠY a
ra q
ĠTod ay
so ever
Ġt ends
Ġstr ing
ĠðŁĺ Ĥ
Ġp oo
Ġtr acking
un ity
Ġinst r
ĠP ri
Ġanal ysis
ec raft
ĠD A
Ã ¤
Ġbad ass
Ġpan ic
ĠAM D
ĠSou ls
ĠKore an
in em
D D
atur al
ick ed
osp here
Ġh iding
Ġimprove ment
ĠM ont
ĠAd am
Ġev olution
Ġcon ce
Ġestab lished
Ġsign al
Ġlar gest
Ġautom atic
Ġbatt les
sen al
Ġsee k
Ġwast ing
ul s
Ġb c
Ġsaving s
Ġsou ls
Ġsche me
ĠGu ys
Ġth or
Ġt ires
ĠS amsung
iz on
Ġnight s
b ies
Ġwhat soever
Ġauthor ity
it ate
Ġfact ors
Ġdec ides
ĠBit coin
Ġpur ple
Ġfood s
ĠF O
Ġcitiz en
Ġl one
Ġbe ats
qu est
Ġa id
Ġbit s
ber g
Ġbl at
gh ter
ĠC y
Ġupvot es
Ġ %
Ġ201 3
no v
Ġearn ed
Ġclaim ed
roc ery
m aking
Ġmount ain
ol ar
oll ow
Ġcom ics
EN T
Ġmast urb
Ġhop es
est ic
th rough
Ġsympt oms
or row
Ġv ib
il st
Ġd ates
ĠFe el
ĠI re
Ġenc ounter
Ġchoo sing
ĠR ick
x x
st yle
Ġnightm are
Ġphr ase
Ġcent ury
Ġme lt
Ġrock et
ĠM ess
Ġgreat ly
Ġcra ppy
ĠS ing
se a
Ġcons oles
Ġrap ed
ĠCong ress
s chool
Ġbit coin
Ġreg ards
ag ers
Ġdep os
ĠWas hington
Ġn ations
Ġli p
oc re
Ġcous in
ĠT W
Ġwork er
