{"<pad>": 0, "<s>": 1, "</s>": 2, "<unk>": 3, "<s_AGAIN>": 4, "<pad_AGAIN>": 5, "</s_AGAIN>": 6, "<unk_AGAIN>": 7, "!": 8, "\"": 9, "#": 10, "$": 11, "%": 12, "&": 13, "'": 14, "(": 15, ")": 16, "*": 17, "+": 18, ",": 19, "-": 20, ".": 21, "/": 22, "0": 23, "1": 24, "2": 25, "3": 26, "4": 27, "5": 28, "6": 29, "7": 30, "8": 31, "9": 32, ":": 33, ";": 34, "<": 35, "=": 36, ">": 37, "?": 38, "@": 39, "A": 40, "B": 41, "C": 42, "D": 43, "E": 44, "F": 45, "G": 46, "H": 47, "I": 48, "J": 49, "K": 50, "L": 51, "M": 52, "N": 53, "O": 54, "P": 55, "Q": 56, "R": 57, "S": 58, "T": 59, "U": 60, "V": 61, "W": 62, "X": 63, "Y": 64, "Z": 65, "[": 66, "\\": 67, "]": 68, "^": 69, "_": 70, "`": 71, "a": 72, "b": 73, "c": 74, "d": 75, "e": 76, "f": 77, "g": 78, "h": 79, "i": 80, "j": 81, "k": 82, "l": 83, "m": 84, "n": 85, "o": 86, "p": 87, "q": 88, "r": 89, "s": 90, "t": 91, "u": 92, "v": 93, "w": 94, "x": 95, "y": 96, "z": 97, "{": 98, "|": 99, "}": 100, "~": 101, "¡": 102, "¢": 103, "£": 104, "¤": 105, "¥": 106, "¦": 107, "§": 108, "¨": 109, "©": 110, "ª": 111, "«": 112, "¬": 113, "®": 114, "¯": 115, "°": 116, "±": 117, "²": 118, "³": 119, "´": 120, "µ": 121, "¶": 122, "·": 123, "¸": 124, "¹": 125, "º": 126, "»": 127, "¼": 128, "½": 129, "¾": 130, "¿": 131, "À": 132, "Á": 133, "Â": 134, "Ã": 135, "Ä": 136, "Å": 137, "Æ": 138, "Ç": 139, "È": 140, "É": 141, "Ê": 142, "Ë": 143, "Ì": 144, "Í": 145, "Î": 146, "Ï": 147, "Ð": 148, "Ñ": 149, "Ò": 150, "Ó": 151, "Ô": 152, "Õ": 153, "Ö": 154, "×": 155, "Ø": 156, "Ù": 157, "Ú": 158, "Û": 159, "Ü": 160, "Ý": 161, "Þ": 162, "ß": 163, "à": 164, "á": 165, "â": 166, "ã": 167, "ä": 168, "å": 169, "æ": 170, "ç": 171, "è": 172, "é": 173, "ê": 174, "ë": 175, "ì": 176, "í": 177, "î": 178, "ï": 179, "ð": 180, "ñ": 181, "ò": 182, "ó": 183, "ô": 184, "õ": 185, "ö": 186, "÷": 187, "ø": 188, "ù": 189, "ú": 190, "û": 191, "ü": 192, "ý": 193, "þ": 194, "ÿ": 195, "Ā": 196, "ā": 197, "Ă": 198, "ă": 199, "Ą": 200, "ą": 201, "Ć": 202, "ć": 203, "Ĉ": 204, "ĉ": 205, "Ċ": 206, "ċ": 207, "Č": 208, "č": 209, "Ď": 210, "ď": 211, "Đ": 212, "đ": 213, "Ē": 214, "ē": 215, "Ĕ": 216, "ĕ": 217, "Ė": 218, "ė": 219, "Ę": 220, "ę": 221, "Ě": 222, "ě": 223, "Ĝ": 224, "ĝ": 225, "Ğ": 226, "ğ": 227, "Ġ": 228, "ġ": 229, "Ģ": 230, "ģ": 231, "Ĥ": 232, "ĥ": 233, "Ħ": 234, "ħ": 235, "Ĩ": 236, "ĩ": 237, "Ī": 238, "ī": 239, "Ĭ": 240, "ĭ": 241, "Į": 242, "į": 243, "İ": 244, "ı": 245, "Ĳ": 246, "ĳ": 247, "Ĵ": 248, "ĵ": 249, "Ķ": 250, "ķ": 251, "ĸ": 252, "Ĺ": 253, "ĺ": 254, "Ļ": 255, "ļ": 256, "Ľ": 257, "ľ": 258, "Ŀ": 259, "ŀ": 260, "Ł": 261, "ł": 262, "Ń": 263, "Ġt": 264, "Ġa": 265, "he": 266, "in": 267, "Ġs": 268, "re": 269, "Ġw": 270, "Ġthe": 271, "ou": 272, "on": 273, "ha": 274, "Ġb": 275, "er": 276, "it": 277, "ing": 278, "Ġm": 279, "Ġc": 280, "ĠI": 281, "is": 282, "nd": 283, "Ġf": 284, "or": 285, "Ġp": 286, "Ġto": 287, "Ġd": 288, "ll": 289, "es": 290, "Ġo": 291, "en": 292, "Ġl": 293, "Ġg": 294, "an": 295, "ed": 296, "Ġy": 297, "Ġand": 298, "hat": 299, "st": 300, "Ġn": 301, "Ġin": 302, "at": 303, "Ġyou": 304, "ar": 305, "Ġof": 306, "om": 307, "le": 308, "ve": 309, "Ġbe": 310, "ot": 311, "Ġit": 312, "Ġha": 313, "Ġe": 314, "Ġis": 315, "Ġth": 316, "ic": 317, "as": 318, "Ġthat": 319, "ow": 320, "ay": 321, "al": 322, "et": 323, "Ġon": 324, "Ġre": 325, "Ġh": 326, "ĠT": 327, "ly": 328, "ut": 329, "se": 330, "ld": 331, "Ġu": 332, "id": 333, "ke": 334, "Ġfor": 335, "ver": 336, "ion": 337, "Ġhe": 338, "ac": 339, "im": 340, "'s": 341, "'t": 342, "am": 343, "all": 344, "gh": 345, "Ġst": 346, "ent": 347, "out": 348, "ĠA": 349, "ro": 350, "Ġan": 351, "ad": 352, "ĠS": 353, "ith": 354, "if": 355, "ould": 356, "oo": 357, "Ġwith": 358, "Ġwe": 359, "Ġhave": 360, "Ġdo": 361, "ill": 362, "ir": 363, "Ġj": 364, "ally": 365, "Ġare": 366, "ust": 367, "Ġnot": 368, "Ġli": 369, "ĠW": 370, "Ġas": 371, "Ġwas": 372, "Ġbut": 373, "op": 374, "Ġr": 375, "..": 376, "ec": 377, "Ġwh": 378, "Ġmo": 379, "uc": 380, "Ġthis": 381, "Ġthey": 382, "Ġme": 383, "ĠThe": 384, "ter": 385, "ome": 386, "Ġk": 387, "her": 388, "ght": 389, "ce": 390, "ĠH": 391, "ĠB": 392, "Ġse": 393, "Ġso": 394, "Ġmy": 395, "Ġcan": 396, "ĠM": 397, "Ġlike": 398, "Ġsh": 399, "Ġor": 400, "Ġne": 401, "ur": 402, "Ġat": 403, "Ġjust": 404, "Ġab": 405, "ĠC": 406, "Ġget": 407, "ant": 408, "one": 409, "ri": 410, "ge": 411, "il": 412, "pp": 413, "Ġyour": 414, "un": 415, "ers": 416, "ĠD": 417, "han": 418, "Ġpl": 419, "king": 420, "Ġif": 421, "Ġwould": 422, "Ġma": 423, "est": 424, "Ġgo": 425, "hing": 426, "Ġal": 427, "ame": 428, "nt": 429, "Ġall": 430, "Ġcom": 431, "ĠN": 432, "au": 433, "ight": 434, "Ġex": 435, "ess": 436, "Ġcon": 437, "Ġwhe": 438, "ab": 439, "ĠP": 440, "Ġsu": 441, "ĠY": 442, "em": 443, "Ġup": 444, "Ġwor": 445, "Ġdon": 446, "Ġfr": 447, "Ġout": 448, "very": 449, "ra": 450, "eop": 451, "ĠIt": 452, "ol": 453, "Ġpro": 454, "eople": 455, "Ġ(": 456, "ig": 457, "Ġabout": 458, "Ġsome": 459, "um": 460, "ul": 461, "us": 462, "Ġany": 463, "ation": 464, "Ġde": 465, "Ġwhat": 466, "ink": 467, "ct": 468, "Ġpeople": 469, "ate": 470, "ĠO": 471, "Ġ\"": 472, "âĢ": 473, "art": 474, "Ġle": 475, "'m": 476, "ĠE": 477, "ast": 478, "ist": 479, "Ġv": 480, "ive": 481, "Ġfrom": 482, "ack": 483, "ĠF": 484, "ĠG": 485, "Ġpo": 486, "Ġone": 487, "ch": 488, "qu": 489, "Ġtr": 490, "el": 491, "Ġkn": 492, "ĠL": 493, "Ġthem": 494, "ood": 495, "ain": 496, "Ġ1": 497, "ven": 498, "and": 499, "Ġmore": 500, "ause": 501, "ĠR": 502, "ind": 503, "Ġwill": 504, "Ġthere": 505, "ough": 506, "Ġthink": 507, "Ġsp": 508, "Ġbec": 509, "Ġtim": 510, "ks": 511, "our": 512, "Ġknow": 513, "ort": 514, "âĢĻ": 515, "Ġwho": 516, "Ġwhen": 517, "Ġfe": 518, "ard": 519, "ide": 520, "ie": 521, "ore": 522, "ect": 523, "end": 524, "Ġplay": 525, "Ġhas": 526, "ther": 527, "Ġno": 528, "Ġpre": 529, "Ġlo": 530, "...": 531, "ound": 532, "ity": 533, "Ġbecause": 534, "Ġus": 535, "th": 536, "Ġ2": 537, "Ġwant": 538, "are": 539, "ss": 540, "Ġint": 541, "ong": 542, "ere": 543, "Ġhow": 544, "uch": 545, "Ġthan": 546, "'re": 547, "ear": 548, "Ġtheir": 549, "Ġdid": 550, "Ġreally": 551, "Ġtime": 552, "ĠYou": 553, "ous": 554, "so": 555, "ine": 556, "act": 557, "ag": 558, "ies": 559, "Ġhis": 560, "ice": 561, "Ġhad": 562, "Ġthing": 563, "Ġother": 564, "Ġevery": 565, "Ġby": 566, "ure": 567, "ff": 568, "Ġdoes": 569, "Ġar": 570, "ap": 571, "ble": 572, "ment": 573, "Ġte": 574, "Ġsay": 575, "ĠIf": 576, "Ġhim": 577, "Ġag": 578, "ite": 579, "Ġonly": 580, "ting": 581, "Ġgu": 582, "ep": 583, "Ġgood": 584, "Ġta": 585, "Ġcomp": 586, "ĠJ": 587, "Ġman": 588, "lo": 589, "ue": 590, "Ġsa": 591, "Ġen": 592, "way": 593, "Ġact": 594, "Ġsee": 595, "Ġcould": 596, "Ġoff": 597, "ry": 598, "Ġthen": 599, "Ġeven": 600, "Ġher": 601, "Ġmuch": 602, "Ġloo": 603, "ire": 604, "Ġ*": 605, "ick": 606, "Ġi": 607, "Ġun": 608, "own": 609, "age": 610, "ans": 611, "Ġneed": 612, "ty": 613, "Ġqu": 614, "'ve": 615, "ĠTh": 616, "Ġshe": 617, "Ġtoo": 618, "00": 619, "ip": 620, "od": 621, "Ġbu": 622, "Ġbet": 623, "Ġim": 624, "omet": 625, "Ġyear": 626, "Ġmake": 627, "Ġway": 628, "ually": 629, "ving": 630, "Ġover": 631, "Ġam": 632, "Ġad": 633, "Ġgame": 634, "Ġbeen": 635, "Ġshould": 636, "Ġwere": 637, "ich": 638, "lf": 639, "int": 640, "Ġexp": 641, "pt": 642, "reat": 643, "Ġnow": 644, "ĠHe": 645, "uck": 646, "Ġ3": 647, "ĠU": 648, "ĠThat": 649, "Ġbeing": 650, "iz": 651, "Ġ-": 652, "able": 653, "Ġsomet": 654, "Ġgoing": 655, "ass": 656, "os": 657, "Ġstill": 658, "ud": 659, "Ġgot": 660, "Ġsc": 661, "Ġco": 662, "ace": 663, "ile": 664, "Ġback": 665, "ck": 666, "ions": 667, "ose": 668, "Ġpr": 669, "ious": 670, "Ġinto": 671, "Ġwork": 672, "ree": 673, "thing": 674, "Ġright": 675, "Ġcl": 676, "Ġch": 677, "ĠThis": 678, "ade": 679, "ĠK": 680, "Ġsomething": 681, "Ġalso": 682, "ĠWe": 683, "Ġdis": 684, "Ġmost": 685, "ount": 686, "ak": 687, "ĠBut": 688, "ĠThey": 689, "be": 690, "ĠAnd": 691, "ase": 692, "iv": 693, "Ġdown": 694, "Ġfeel": 695, "ond": 696, "irst": 697, "fter": 698, "Ġlot": 699, "dit": 700, "'ll": 701, "'d": 702, "Ġtry": 703, "Ġday": 704, "Ġac": 705, "Ġcont": 706, "Ġuse": 707, "ber": 708, "ason": 709, "nder": 710, "iff": 711, "Ġvery": 712, "ĠSo": 713, "ĠWhat": 714, "Ġwhich": 715, "Ġnever": 716, "Ġpart": 717, "Ġhapp": 718, "Ġgr": 719, "Ġwhy": 720, "Ġbetter": 721, "Ġguy": 722, "Ġcha": 723, "ens": 724, "ial": 725, "per": 726, "Ġsame": 727, "Ġbl": 728, "Ġdoesn": 729, "Ġfirst": 730, "Ġwell": 731, "Ġdiff": 732, "ull": 733, "Ġnew": 734, "Ġwhere": 735, "Ġro": 736, "tty": 737, "Ġchan": 738, "Ġtw": 739, "Ġstart": 740, "kes": 741, "fore": 742, "Ġshit": 743, "other": 744, "Ġafter": 745, "ably": 746, "Ġhere": 747, "wn": 748, "ĠWh": 749, "erson": 750, "Ġke": 751, "ated": 752, "ence": 753, "Ġres": 754, "Ġactually": 755, "Ġunder": 756, "ought": 757, "Ġsure": 758, "Ġpoint": 759, "Ġthough": 760, "Ġdidn": 761, "ish": 762, "ild": 763, "Ġagain": 764, "orm": 765, "Ġper": 766, "Ġthr": 767, "Ġlit": 768, "ign": 769, "Ġsomeone": 770, "tle": 771, "Ġtake": 772, "mo": 773, "Ġpretty": 774, "ah": 775, "Ġthose": 776, "vel": 777, "Ġmay": 778, "ool": 779, "self": 780, "Ġ5": 781, "Ġhar": 782, "Ġapp": 783, "Ġjo": 784, "ways": 785, "ach": 786, "Ġthings": 787, "Ġ4": 788, "read": 789, "ĠSt": 790, "Ġreal": 791, "Ġbefore": 792, "riend": 793, ").": 794, "ife": 795, "red": 796, "ning": 797, "ory": 798, "ĠV": 799, "Ġperson": 800, "ance": 801, "ĠAl": 802, "sh": 803, "Ġche": 804, "bably": 805, "Ġdec": 806, "Ġsaid": 807, "Ġfa": 808, "Ġyears": 809, "Ġbad": 810, "Ġdef": 811, "Ġimp": 812, "Ġdiffere": 813, "Ġser": 814, "Ġlook": 815, "Ġlong": 816, "ult": 817, "Ġseem": 818, "Ġwr": 819, "ĠIn": 820, "ia": 821, "ince": 822, "igh": 823, "Ġrec": 824, "ord": 825, "ves": 826, "Ġwat": 827, "ps": 828, "ically": 829, "Ġhel": 830, "ub": 831, "Ġinc": 832, "Ġ:": 833, "ical": 834, "Ġend": 835, "ress": 836, "Ġaround": 837, "ary": 838, "Ġisn": 839, "ĠThere": 840, "Ġthese": 841, "ple": 842, "ft": 843, "ever": 844, "Ġmean": 845, "Ġrep": 846, "Ġmany": 847, "Ġgreat": 848, "Ġalways": 849, "Ġfind": 850, "og": 851, "Ġour": 852, "Ġbr": 853, "Ġcons": 854, "ĠHow": 855, "Ġits": 856, "xt": 857, "Ġbot": 858, "we": 859, "Ġatt": 860, "ons": 861, "Ġtal": 862, "ĠMy": 863, "Ġteam": 864, "less": 865, "iss": 866, "Ġpost": 867, "Ġprobably": 868, "Ġmat": 869, "Ġhard": 870, "oc": 871, "urn": 872, "hed": 873, "oy": 874, "ily": 875, "Ġput": 876, "Ġown": 877, "Ġsupp": 878, "Ġanything": 879, "ĠNo": 880, "Ġcall": 881, "Ġwhile": 882, "ved": 883, "Ġtwo": 884, "Ġcr": 885, "Ġshow": 886, "up": 887, "Ġfew": 888, "Ġgetting": 889, "ames": 890, "Ġfl": 891, "ating": 892, "Ġbig": 893, "Ġacc": 894, "Ġbel": 895, "Ġreason": 896, "ual": 897, "ely": 898, "Ġbest": 899, "Ġrun": 900, "Ġmade": 901, "ĠNot": 902, "Ġfriend": 903, "gg": 904, "ave": 905, "Ġkind": 906, "vers": 907, "Ġsub": 908, "Ġmon": 909, "Ġop": 910, "Ġcar": 911, "ful": 912, "Ġlove": 913, "Ġbit": 914, "Ġsl": 915, "Ġbas": 916, "les": 917, "oney": 918, "Ġkeep": 919, "Ġass": 920, "ell": 921, "Ġdes": 922, "ise": 923, "ict": 924, "Ġsm": 925, "ark": 926, "Ġel": 927, "ible": 928, "Ġdoing": 929, "Ġmin": 930, "blem": 931, "Ġsince": 932, "Ġlast": 933, "Ġhelp": 934, "Ġrel": 935, "mer": 936, "Ġread": 937, "Ġthrough": 938, "Ġlet": 939, "Ġchar": 940, "Ġfun": 941, "Ġinst": 942, "Ġwee": 943, "ower": 944, "Ġgive": 945, "ĠDo": 946, "Ġmight": 947, "Ġthought": 948, "eah": 949, "Ġproblem": 950, "ope": 951, "Ġ$": 952, "Ġmoney": 953, "Ġenough": 954, "ny": 955, "let": 956, "Ġever": 957, "Ġtell": 958, "get": 959, "Ġlittle": 960, "ors": 961, "Ġhappen": 962, "Ġdifferent": 963, "ne": 964, "Ġph": 965, "Ġstr": 966, "Ġgen": 967, "ian": 968, "Ġlife": 969, "Ġsim": 970, "Ġcomm": 971, "hen": 972, "Ġpay": 973, "Ġused": 974, "ense": 975, "ĠIs": 976, "Ġfuck": 977, "here": 978, "ail": 979, "pe": 980, "uff": 981, "Ġhand": 982, "Ġold": 983, "Ġrem": 984, "ook": 985, "Ġide": 986, "Ġfar": 987, "ĠAs": 988, "Ġsec": 989, "Ġeas": 990, "Ġem": 991, "ump": 992, "Ġwithout": 993, "Ġtri": 994, "ger": 995, "ib": 996, "az": 997, "Ġmakes": 998, "Ġbelie": 999, "Ġkill": 1000, "ody": 1001, "Ġsha": 1002, "li": 1003, "aw": 1004, "ards": 1005, "Ġhigh": 1006, "stand": 1007, "Ġadd": 1008, "ert": 1009, "Ġbo": 1010, "Ġent": 1011, "Ġgames": 1012, "Ġcare": 1013, "Ġwon": 1014, "Ġdr": 1015, "Ġbuy": 1016, "Ġeveryone": 1017, "Ġset": 1018, "ucking": 1019, "Ġtrying": 1020, "ĠJust": 1021, "ither": 1022, "Ġ6": 1023, "ations": 1024, "Ġsk": 1025, "ait": 1026, "Ġquest": 1027, "Ġkid": 1028, "ics": 1029, "Ġcome": 1030, "Ġhaving": 1031, "Ġhat": 1032, "arly": 1033, "ready": 1034, "Ġsy": 1035, "erest": 1036, "lic": 1037, "ath": 1038, "Ġev": 1039, "cept": 1040, "Ġfact": 1041, "Ġleast": 1042, "ents": 1043, "ĠAlso": 1044, "Ġob": 1045, "Ġboth": 1046, "ially": 1047, "Ġalready": 1048, "Ġmod": 1049, "na": 1050, "Ġelse": 1051, "Ġcur": 1052, "Ġanother": 1053, "ather": 1054, "ked": 1055, "Ġtra": 1056, "Ġless": 1057, "Ġreg": 1058, "Ġunderstand": 1059, "Ġinter": 1060, "Ġcle": 1061, "Ġjob": 1062, "Ġinf": 1063, "ead": 1064, "Ġ10": 1065, "Ġter": 1066, "Ġcount": 1067, "hes": 1068, "Ġ'": 1069, "Ġ20": 1070, "ost": 1071, "ix": 1072, "ates": 1073, "Ġsaying": 1074, "Ġins": 1075, "gr": 1076, "Ġiss": 1077, "old": 1078, "ize": 1079, "Ġaw": 1080, "duc": 1081, "Ġunt": 1082, "ĠWhy": 1083, "Ġdam": 1084, "Ġworld": 1085, "ĠCh": 1086, "Ġfin": 1087, "Ġsit": 1088, "ng": 1089, "ten": 1090, "Ġmonth": 1091, "Ġpol": 1092, "Ġstop": 1093, "Ġaway": 1094, "als": 1095, "Ġfucking": 1096, "day": 1097, "!!": 1098, "Ġwrong": 1099, "nce": 1100, "Ġnothing": 1101, "Ġwin": 1102, "Ġwom": 1103, "Ġanyone": 1104, "ash": 1105, "iously": 1106, "Ġinterest": 1107, "ces": 1108, "Ġinv": 1109, "Ġext": 1110, "Ġstuff": 1111, "ters": 1112, "Ġsur": 1113, "pl": 1114, "Ġable": 1115, "Ġnext": 1116, "ĠShe": 1117, "Ġclo": 1118, "Ġuntil": 1119, "ew": 1120, "Ġtop": 1121, "ention": 1122, "av": 1123, "Ġdone": 1124, "ition": 1125, "oot": 1126, "Ġseems": 1127, "Ġsound": 1128, "ier": 1129, "Ġlevel": 1130, "its": 1131, "ism": 1132, "),": 1133, "Ġcou": 1134, "ts": 1135, "Ġspec": 1136, "Ġwouldn": 1137, "ee": 1138, "Ġidea": 1139, "ĠCan": 1140, "Ġdri": 1141, "ience": 1142, "Ġresp": 1143, "ĠThan": 1144, "ĠWhen": 1145, "Ġturn": 1146, "ang": 1147, "Ġagainst": 1148, "Ġhour": 1149, "tc": 1150, "Ġmaking": 1151, "Ġusing": 1152, "Ġtimes": 1153, "Ġposs": 1154, "Ġref": 1155, "Ġsw": 1156, "Ġplace": 1157, "ude": 1158, "chool": 1159, "ering": 1160, "Ġmaybe": 1161, "ont": 1162, "Ġbelieve": 1163, "Ġeither": 1164, "Ġguys": 1165, "Ġbre": 1166, "ĠYeah": 1167, "....": 1168, "Ġeverything": 1169, "Ġspe": 1170, "ative": 1171, "arent": 1172, "ank": 1173, "Ġgener": 1174, "**": 1175, "Ġfree": 1176, "Ġfull": 1177, "Ġconf": 1178, "Ġcor": 1179, "Ġcomplet": 1180, "ility": 1181, "ĠFor": 1182, "onest": 1183, "ake": 1184, "vie": 1185, "ote": 1186, "Ġ/": 1187, "ime": 1188, "ĠTr": 1189, "Ġlooking": 1190, "Ġguess": 1191, "man": 1192, "most": 1193, "Ġdefin": 1194, "Ġgir": 1195, "Ġeff": 1196, "lease": 1197, "Ġcomment": 1198, "ys": 1199, "Ġwhole": 1200, "Ġexper": 1201, "Ġonce": 1202, "Ġseen": 1203, "Ġplaying": 1204, "Ġsecond": 1205, "Ġhead": 1206, "Ġ9": 1207, "Ġsuch": 1208, "ars": 1209, "oll": 1210, "Ġwait": 1211, "arn": 1212, "Ġetc": 1213, "Ġhope": 1214, "sp": 1215, "ĠOr": 1216, "ug": 1217, "Ġdep": 1218, "Ġind": 1219, "ĠEdit": 1220, "ird": 1221, "ember": 1222, "Ġgi": 1223, "ced": 1224, "Ġwent": 1225, "Ġ8": 1226, "Ġschool": 1227, "stem": 1228, "Ġcharac": 1229, "ats": 1230, "Ġaren": 1231, "ouse": 1232, "ific": 1233, "Ġgets": 1234, "Ġwasn": 1235, "Ġ7": 1236, "Ġty": 1237, "Ġmind": 1238, "Ġmiss": 1239, "Ġdisc": 1240, "ied": 1241, "Ġred": 1242, "ins": 1243, "lain": 1244, "ered": 1245, "Ġlist": 1246, "itely": 1247, "Ġlive": 1248, ".\"": 1249, "Ġchange": 1250, "Ġpower": 1251, "ings": 1252, "ately": 1253, "Ġsupport": 1254, "--": 1255, "Ġplayers": 1256, "ular": 1257, "Ġleg": 1258, "Ġhome": 1259, "Ġeach": 1260, "Ġleft": 1261, "ĠWell": 1262, "Ġrest": 1263, "Ġcre": 1264, "ween": 1265, "led": 1266, "Ġfam": 1267, "Ġweek": 1268, "ues": 1269, "umb": 1270, "lt": 1271, "ets": 1272, "ike": 1273, "der": 1274, "Ġsystem": 1275, "ern": 1276, "ident": 1277, "lect": 1278, "ĠMay": 1279, "Ġstand": 1280, "Ġbuild": 1281, "uss": 1282, "Ġcra": 1283, "olut": 1284, "alth": 1285, "Ġmet": 1286, "ject": 1287, "Ġperf": 1288, "ph": 1289, "Ġmed": 1290, "dd": 1291, "ech": 1292, "io": 1293, "eg": 1294, "meric": 1295, "Ġpass": 1296, "Ġquestion": 1297, "ĠUS": 1298, "Ġhit": 1299, "Ġbetween": 1300, "Ġcour": 1301, "ertain": 1302, "ren": 1303, "ater": 1304, "Ġnice": 1305, "Ġplan": 1306, "rent": 1307, "Ġopen": 1308, "Ġdeal": 1309, "Ġyet": 1310, "inking": 1311, "bo": 1312, "\".": 1313, "Ġadv": 1314, "cess": 1315, "Ġsmall": 1316, "ci": 1317, "ef": 1318, "Ġsex": 1319, "Ġchild": 1320, "ching": 1321, "Ġclass": 1322, "Ġdays": 1323, "Ġlooks": 1324, "uring": 1325, "Ġinstead": 1326, "Ġalmost": 1327, "ows": 1328, "Ġfriends": 1329, "Ġsuper": 1330, "ĠAmeric": 1331, "Ġwar": 1332, "Ġexact": 1333, "Ġmove": 1334, "Ġhate": 1335, "ner": 1336, "Ġworth": 1337, "Ġside": 1338, "Ġmom": 1339, "Ġvide": 1340, "Ġdra": 1341, "Ġgirl": 1342, "Ġfight": 1343, "Ġed": 1344, "Ġhu": 1345, "Ġret": 1346, "Ġstory": 1347, "Ġes": 1348, "Ġcoll": 1349, "body": 1350, "Ġcontro": 1351, "Ġcase": 1352, "ited": 1353, "orry": 1354, "ream": 1355, "Ġname": 1356, "ĠDon": 1357, "Ġago": 1358, "Ġsign": 1359, "Ġdro": 1360, "Ġmeans": 1361, "Ġtalking": 1362, "Ġsing": 1363, "Ġ100": 1364, "Ġtrans": 1365, "aid": 1366, "orn": 1367, "Ġfound": 1368, "Ġentire": 1369, "pr": 1370, "Ġdefinitely": 1371, "bs": 1372, "amp": 1373, "ots": 1374, "ives": 1375, "Ġstarted": 1376, "Ġwanted": 1377, "any": 1378, "ĠAll": 1379, "ities": 1380, "Ġabs": 1381, "ists": 1382, "ms": 1383, "Ġagree": 1384, "Ġpick": 1385, "Ġword": 1386, "Ġseason": 1387, "Ġhum": 1388, "cy": 1389, "Ġopt": 1390, "ublic": 1391, "ĠâĢ": 1392, "Ġ:)": 1393, "Ġremember": 1394, "ĠOh": 1395, "imes": 1396, "ĠMaybe": 1397, "Ġexpect": 1398, "ĠUn": 1399, "where": 1400, "ling": 1401, "Ġpop": 1402, "ality": 1403, "ex": 1404, "Ġmyself": 1405, "ecially": 1406, "Ġexc": 1407, "Ġplayer": 1408, "ness": 1409, "Ġlol": 1410, "Ġopp": 1411, "omm": 1412, "ĠAt": 1413, "Ġbus": 1414, "ken": 1415, "erally": 1416, "Ġz": 1417, "ines": 1418, "med": 1419, "Ġ**": 1420, "ale": 1421, "ĠAny": 1422, "line": 1423, "Ġgl": 1424, "ock": 1425, "Ġask": 1426, "Ġcut": 1427, "Ġart": 1428, "Ġhours": 1429, "Ġnight": 1430, "Ġval": 1431, "Ġsense": 1432, "Ġhonest": 1433, "ĠSh": 1434, "Ġfine": 1435, "Ġav": 1436, "ĠThen": 1437, "Ġminut": 1438, "Ġchang": 1439, "Ġdou": 1440, "Ġwond": 1441, "owing": 1442, "unch": 1443, "Ġkids": 1444, "ĠYes": 1445, "ane": 1446, "Ġrather": 1447, "olog": 1448, "Ġcool": 1449, "joy": 1450, "Ġmem": 1451, "Ġcertain": 1452, "Ġcost": 1453, "ract": 1454, "ĠRe": 1455, "Ġproduc": 1456, "Ġmar": 1457, "ized": 1458, "Ġcap": 1459, "ER": 1460, "app": 1461, "not": 1462, "Ġwomen": 1463, "Ġ>": 1464, "Ġcurrent": 1465, "Ġbra": 1466, "Ġrequ": 1467, "ward": 1468, "Ġexperience": 1469, "Ġissue": 1470, "ying": 1471, "ired": 1472, "sw": 1473, "Ġmonths": 1474, "Ġhalf": 1475, "Ġmatter": 1476, "ilar": 1477, "Ġyes": 1478, "onna": 1479, "osed": 1480, "Ġcompletely": 1481, "ĠThanks": 1482, "Ġmid": 1483, "Ġwatch": 1484, "Ġcomes": 1485, "Ġneeds": 1486, "ross": 1487, "Ġgun": 1488, "air": 1489, "Ġhaven": 1490, "Ġtold": 1491, "Ġquite": 1492, "Ġtrue": 1493, "Ġcame": 1494, "Ġworking": 1495, "ĠQ": 1496, "ĠTo": 1497, "Ġyourself": 1498, "ures": 1499, "ently": 1500, "Ġlikely": 1501, "aking": 1502, "Ġarg": 1503, "ider": 1504, "Ġtalk": 1505, "Ġlaw": 1506, "ared": 1507, "Ġopin": 1508, "ĠTH": 1509, "ĠOn": 1510, "ional": 1511, "Ġsingle": 1512, "ove": 1513, "Ġaut": 1514, "Ġhear": 1515, "ield": 1516, "Ġfast": 1517, "ĠX": 1518, "ĠNow": 1519, "Ġpos": 1520, "Ġusually": 1521, "Ġplayed": 1522, "Ġpossible": 1523, "Ġtot": 1524, "mm": 1525, "ange": 1526, "Ġgrou": 1527, "Ġbro": 1528, "cial": 1529, "Ġwal": 1530, "ship": 1531, "Ġenjoy": 1532, "Ġsol": 1533, "Ġheard": 1534, "irect": 1535, "Ġline": 1536, "Ġfav": 1537, "rem": 1538, "ĠBe": 1539, "Ġones": 1540, "Ġsuc": 1541, "Ġlar": 1542, "Ġtook": 1543, "Ġlow": 1544, "ted": 1545, "ob": 1546, "ush": 1547, "ĠSp": 1548, "ised": 1549, "ecause": 1550, "iness": 1551, "ĠSome": 1552, "the": 1553, "Ġfamily": 1554, "Ġassum": 1555, "Ġgonna": 1556, "Ġamount": 1557, "atch": 1558, "Ġnorm": 1559, "Ġfre": 1560, "Ġcalled": 1561, "Ġcourse": 1562, "Ġblack": 1563, "Ġeffect": 1564, "ched": 1565, "fort": 1566, "Ġfair": 1567, "Ġgoes": 1568, "Ġpast": 1569, "upid": 1570, "Ġhouse": 1571, "Ġthinking": 1572, "ĠBl": 1573, "ices": 1574, "Ġsell": 1575, "Ġpur": 1576, "Ġstay": 1577, "Ġtried": 1578, "Ġlearn": 1579, "Ġcouple": 1580, "Ġsitu": 1581, "rect": 1582, "Ġclose": 1583, "Ġve": 1584, "Ġfood": 1585, "ĠAre": 1586, "Ġworks": 1587, "Ġeasy": 1588, "Ġlight": 1589, "jor": 1590, "Ġduring": 1591, "Ġdamage": 1592, "reen": 1593, "Ġcheck": 1594, "ðŁ": 1595, "IT": 1596, "Ġothers": 1597, "??": 1598, "Ġfan": 1599, "Ġcommun": 1600, "Ġdont": 1601, "Ġcountry": 1602, "Ġsays": 1603, "ĠBr": 1604, "ĠEvery": 1605, "Ġhold": 1606, "und": 1607, "Ġparent": 1608, "Ġok": 1609, "Ġhappened": 1610, "Ġmark": 1611, "Ġimport": 1612, "vern": 1613, "Ġpres": 1614, "Ġliterally": 1615, "Ġstud": 1616, "Ġansw": 1617, "sel": 1618, "Ġtaking": 1619, "Ġvideo": 1620, "Ġwater": 1621, "Ġface": 1622, "Ġexactly": 1623, "co": 1624, "Ġfoll": 1625, "side": 1626, "tern": 1627, "Ġmen": 1628, "ĠPeople": 1629, "Ġmention": 1630, "Ġabsolut": 1631, "ĠOne": 1632, "ample": 1633, "IN": 1634, "ient": 1635, "Ġdem": 1636, "Ġspend": 1637, "ipp": 1638, "ĠZ": 1639, "ĠAr": 1640, "land": 1641, "Ġhealth": 1642, "ĠPl": 1643, "ster": 1644, "Ġoften": 1645, "mp": 1646, "Ġgra": 1647, "ode": 1648, "Ġmust": 1649, "Ġmain": 1650, "Ġstupid": 1651, "wh": 1652, "50": 1653, "Ġemp": 1654, "âĢĿ": 1655, "sing": 1656, "Ġrid": 1657, "ety": 1658, "Ġloc": 1659, "Ġpri": 1660, "Ġsaw": 1661, "ments": 1662, "Ġcharacter": 1663, "ensive": 1664, "Ġmajor": 1665, "pecially": 1666, "Ġprof": 1667, "oice": 1668, "Ġsort": 1669, "Ġaff": 1670, "itch": 1671, "umber": 1672, "ork": 1673, "Ġhuge": 1674, "ret": 1675, "Ġlead": 1676, "Ġallow": 1677, "Ġaccount": 1678, "res": 1679, "Ġcoming": 1680, "Ġdirect": 1681, "10": 1682, "ĠBecause": 1683, "Ġattack": 1684, "Ġmus": 1685, "ĠâĢľ": 1686, "ĠFr": 1687, "Ġbasically": 1688, "Ġtest": 1689, "ĠTrump": 1690, "Ġstrong": 1691, "inal": 1692, "ĠAn": 1693, "000": 1694, "Ġpull": 1695, "Ġ&": 1696, "rib": 1697, "Ġlater": 1698, "Ġwhite": 1699, "ĠDid": 1700, "Ġamaz": 1701, "Ġdet": 1702, "Ġbat": 1703, "Ġobv": 1704, "Ġconc": 1705, "esome": 1706, "icul": 1707, "Ġimag": 1708, "Ġmess": 1709, "Ġhell": 1710, "rible": 1711, "ones": 1712, "Ġchance": 1713, "Ġleave": 1714, "Ġhappy": 1715, "ma": 1716, "Ġwhatever": 1717, "Ġpot": 1718, "use": 1719, "ĠLike": 1720, "Ġsounds": 1721, "ully": 1722, "gy": 1723, "Ġban": 1724, "Ġcard": 1725, "wards": 1726, "Ġmovie": 1727, "Ġquick": 1728, "Ġstra": 1729, "Ġtech": 1730, "ides": 1731, "Ġgovern": 1732, "Ġcop": 1733, "Ġnon": 1734, "Ġpar": 1735, "Ġfil": 1736, "Ġcontrol": 1737, "rist": 1738, "Ġboo": 1739, "Ġtoget": 1740, "Ġtogether": 1741, "selves": 1742, "Ġopinion": 1743, "Ġ30": 1744, "Ġbreak": 1745, "Ġtax": 1746, "Ġform": 1747, "fer": 1748, "itive": 1749, "Ġimportant": 1750, "Ġluck": 1751, "Ġtoday": 1752, "Ġincl": 1753, "Ġey": 1754, "Ġvers": 1755, "ĠEven": 1756, "ems": 1757, "Ġpain": 1758, "Ġminutes": 1759, "Ġste": 1760, "ants": 1761, "cc": 1762, "Ġprot": 1763, "zy": 1764, "ole": 1765, "ĠPro": 1766, "more": 1767, "Ġcouldn": 1768, "ined": 1769, "Ġstate": 1770, "Ġhig": 1771, "Ġdist": 1772, "Ġsn": 1773, "velop": 1774, "rew": 1775, "Ġann": 1776, "Ġespecially": 1777, "ĠLe": 1778, "Ġexample": 1779, "Ġfix": 1780, "Ġintern": 1781, "Ġphone": 1782, "Ġfig": 1783, "Ġdog": 1784, "Ġexplain": 1785, "ĠEx": 1786, "Ġsimilar": 1787, "lock": 1788, "Ġcreat": 1789, "Ġwants": 1790, "Ġequ": 1791, "Ġshort": 1792, "Ġskill": 1793, "Ġperfect": 1794, "Ġbased": 1795, "ĠOP": 1796, "Ġrunning": 1797, "Ġbull": 1798, "Ġpolit": 1799, "els": 1800, "Ġissues": 1801, "Ġnumber": 1802, "fully": 1803, "ians": 1804, "OT": 1805, "ision": 1806, "oid": 1807, "uct": 1808, "Ġroom": 1809, "ches": 1810, "elt": 1811, "Ġsituation": 1812, "Ġconst": 1813, "Ġweird": 1814, "Ġben": 1815, "br": 1816, "har": 1817, "Ġsal": 1818, "ased": 1819, "Ġrac": 1820, "iting": 1821, "Ġmil": 1822, "Ġfire": 1823, "Ġcol": 1824, "Ġmor": 1825, "Ġlost": 1826, "Ġbring": 1827, "Ġbody": 1828, "Ġmult": 1829, "Ġap": 1830, "Ġorder": 1831, "Ġill": 1832, "Ġfavor": 1833, "Ġworse": 1834, "ibly": 1835, "Ġsoon": 1836, "Ġstat": 1837, "ien": 1838, "iew": 1839, "Ġcau": 1840, "arch": 1841, "ggest": 1842, "ped": 1843, "con": 1844, "Ġcheap": 1845, "Ġ+": 1846, "Ġprice": 1847, "Ġhor": 1848, "Ġdi": 1849, "Ġeng": 1850, "Ġdevelop": 1851, "ĠYour": 1852, "ler": 1853, "20": 1854, "Ġstore": 1855, "ĠDoes": 1856, "ĠRed": 1857, "ĠGood": 1858, "Ġbecome": 1859, "gle": 1860, "Ġeat": 1861, "ages": 1862, "ried": 1863, "com": 1864, "Ġgroup": 1865, "row": 1866, "Ġpat": 1867, "Ġbar": 1868, "Ġthree": 1869, "Ġshot": 1870, "Ġparents": 1871, "bt": 1872, "Ġsuggest": 1873, "Ġamazing": 1874, "Ġevent": 1875, "Ġview": 1876, "Ġ201": 1877, "Ġcause": 1878, "ining": 1879, "Ġsaf": 1880, "ply": 1881, "aim": 1882, "ection": 1883, "ball": 1884, "^^": 1885, "Ġwish": 1886, "Ġbusiness": 1887, "Ġexist": 1888, "gin": 1889, "Ġdifference": 1890, "Ġtype": 1891, "ax": 1892, "Ġuni": 1893, "Ġgovernment": 1894, "Ġyeah": 1895, "Ġpict": 1896, "AT": 1897, "Ġprov": 1898, "Ġshoot": 1899, "Ġabsolutely": 1900, "Ġelect": 1901, "Ġdev": 1902, "augh": 1903, "ru": 1904, "Ġweeks": 1905, "Ġdead": 1906, "Ġbeh": 1907, "Ġtakes": 1908, "like": 1909, "cle": 1910, "Ġsurpr": 1911, "ories": 1912, "Ġlose": 1913, "ational": 1914, "ague": 1915, "loy": 1916, "Ġnec": 1917, "Ġlim": 1918, "Ġcorrect": 1919, "Ġremo": 1920, "ĠGod": 1921, "Ġdue": 1922, "Ġfall": 1923, "Ġunless": 1924, "Ġcompany": 1925, "Ġinteresting": 1926, "Ġself": 1927, "ided": 1928, "ric": 1929, "used": 1930, "Ġpublic": 1931, "Ġhur": 1932, "Ġhappens": 1933, "Ġproper": 1934, "Ġweap": 1935, "Ġgod": 1936, "ton": 1937, "Ġwonder": 1938, "ries": 1939, "no": 1940, "Ġprev": 1941, "Ġawesome": 1942, "Ġrepl": 1943, "Ġball": 1944, "to": 1945, "Ġhist": 1946, "Ġorig": 1947, "Ġcontin": 1948, "ature": 1949, "Ġactual": 1950, "right": 1951, "Ġid": 1952, "Ġarm": 1953, "Ġbehind": 1954, "ĠSe": 1955, "Ġep": 1956, "Ġfront": 1957, "Ġhuman": 1958, "Ġsmo": 1959, "OU": 1960, "iec": 1961, "Ġthemselves": 1962, "Ġvi": 1963, "dle": 1964, "Ġsometimes": 1965, "Ġlarge": 1966, "Ġearly": 1967, "Ġnormal": 1968, "oth": 1969, "Ġair": 1970, "Ġsimply": 1971, "Ġdamn": 1972, "Ġhy": 1973, "ĠMost": 1974, "Ġthread": 1975, "gan": 1976, "antly": 1977, "view": 1978, "Ġhot": 1979, "ital": 1980, "te": 1981, "ĠGo": 1982, "LL": 1983, "Ġ50": 1984, "ming": 1985, "Ġmill": 1986, "play": 1987, "Ġwoman": 1988, "Ġru": 1989, "Ġcompet": 1990, "Ġreddit": 1991, "ument": 1992, "Ġ15": 1993, "Ġfigure": 1994, "Ġvot": 1995, "ault": 1996, "verage": 1997, "Ġanswer": 1998, "Ġfail": 1999, "Ġshouldn": 2000, "Ġmarket": 2001, "Ġclear": 2002, "ĠIts": 2003, "Ġseeing": 2004, "Ġgiven": 2005, "Ġhonestly": 2006, "Ġrelation": 2007, "Ġfore": 2008, "aces": 2009, "Ġplease": 2010, "ring": 2011, "Ġbook": 2012, "ron": 2013, "by": 2014, "Ġgeneral": 2015, "Ġsorry": 2016, "Ġ.": 2017, "unk": 2018, "Ġfut": 2019, "Ġstre": 2020, "Ġscen": 2021, "acy": 2022, "Ġtreat": 2023, "ĠIm": 2024, "Ġsupposed": 2025, "Ġextrem": 2026, "ement": 2027, "Ġsad": 2028, "Ġpe": 2029, "Ġarea": 2030, "Ġdie": 2031, "ator": 2032, "Ġmag": 2033, "me": 2034, "Ġrele": 2035, "ĠHa": 2036, "ify": 2037, "Ġoutside": 2038, "vot": 2039, "leep": 2040, "Ġasked": 2041, "Ġign": 2042, "ik": 2043, "Ġdeath": 2044, "ished": 2045, "ĠAm": 2046, "Ġ=": 2047, "Ġx": 2048, "Ġtrade": 2049, "cha": 2050, "ĠWith": 2051, "ommend": 2052, "Ġpoor": 2053, "Ġdesign": 2054, "gram": 2055, "Ġparty": 2056, "Ġmass": 2057, "andom": 2058, "Ġanymore": 2059, "gress": 2060, "Ġfelt": 2061, "Ġcrazy": 2062, "erv": 2063, "Ġworked": 2064, "Ġsent": 2065, "Ġanyway": 2066, "Ġserv": 2067, "Ġinform": 2068, "Ġwear": 2069, "Ġsocial": 2070, "Ġhigher": 2071, "ung": 2072, "ips": 2073, "Ġrelationship": 2074, "ned": 2075, "Ġrecommend": 2076, "Ġboy": 2077, "sc": 2078, "ery": 2079, "Ġknew": 2080, "ior": 2081, "Ġdude": 2082, "Ġspeed": 2083, "outh": 2084, "Ġimagine": 2085, "Ġlonger": 2086, "ustom": 2087, "Ġvis": 2088, "Ġextra": 2089, "Ġincre": 2090, "Ġpack": 2091, "mit": 2092, "Ġconsider": 2093, "Ġ12": 2094, "ina": 2095, "Ġdrive": 2096, "ounds": 2097, "ending": 2098, "Ġasking": 2099, "ama": 2100, "Ġfuture": 2101, "ison": 2102, "Ġpoints": 2103, "Ġtit": 2104, "Ġclaim": 2105, "oring": 2106, "Ġexcept": 2107, "\",": 2108, "Ġliving": 2109, "ape": 2110, "Ġknows": 2111, "Ġcommon": 2112, "Ġir": 2113, "Ġbought": 2114, "Ġnear": 2115, "sed": 2116, "Ġfem": 2117, "Ġkinda": 2118, "ĠWould": 2119, "ĠCl": 2120, "Ġbab": 2121, "ĠWho": 2122, "ĠChrist": 2123, "Ġfunny": 2124, "ged": 2125, "Ġgave": 2126, "Ġprom": 2127, "Ġcomplain": 2128, "pect": 2129, "Ġslow": 2130, "Ġant": 2131, "Ġstraight": 2132, "Ġrelig": 2133, "Ġbeat": 2134, "Ġmis": 2135, "Ġeasily": 2136, "Ġdest": 2137, "load": 2138, "Ġwatching": 2139, "RE": 2140, "uro": 2141, "ege": 2142, "aste": 2143, "Ġmusic": 2144, "Ġgiving": 2145, "ution": 2146, "Ġappro": 2147, "wise": 2148, "ift": 2149, "Ġproblems": 2150, "Ġpiec": 2151, "Ġclean": 2152, "icks": 2153, "ON": 2154, "Ġtotally": 2155, "Ġfans": 2156, "Ġteams": 2157, "Ġtyp": 2158, "AN": 2159, "ĠMan": 2160, "atur": 2161, "Ġalong": 2162, "oud": 2163, "Ġfit": 2164, "Ġfoc": 2165, "oint": 2166, "icle": 2167, "ari": 2168, "Ġinterested": 2169, "Ġhop": 2170, "Ġpract": 2171, "ging": 2172, "Ġresult": 2173, "for": 2174, "roll": 2175, "Ġ0": 2176, "ĠHowever": 2177, "Ġtechn": 2178, "Ġsend": 2179, "Ġlog": 2180, "ocr": 2181, "Ġmultip": 2182, "ĠLet": 2183, "ugg": 2184, "of": 2185, "ĠDe": 2186, "Ġfoot": 2187, "Ġinvest": 2188, "yle": 2189, "che": 2190, "Ġrequire": 2191, "Ġworst": 2192, "Ġphys": 2193, "ively": 2194, "Ġland": 2195, "Ġmoment": 2196, "Ġrandom": 2197, "Ġwall": 2198, "Ġneeded": 2199, "Ġrealize": 2200, "oss": 2201, "Ġ19": 2202, "ĠThank": 2203, "Ġprocess": 2204, "Ġvs": 2205, "Ġfollow": 2206, "Ġpress": 2207, "ral": 2208, "Ġbox": 2209, "Ġvote": 2210, "Ġneg": 2211, "Ġcomb": 2212, "Ġfeeling": 2213, "ĠJo": 2214, "idence": 2215, "Ġage": 2216, "mon": 2217, "ising": 2218, "ĠHave": 2219, "Ġupd": 2220, "Ġanim": 2221, "Ġcal": 2222, "Ġcommunity": 2223, "Ġcity": 2224, "Ġpaid": 2225, "Ġdrop": 2226, "ĠAmerican": 2227, "ĠED": 2228, "set": 2229, "AA": 2230, "Ġcustom": 2231, "ses": 2232, "iny": 2233, "Ġthanks": 2234, "head": 2235, "ĠSc": 2236, "orts": 2237, "Ġseries": 2238, "Ġcharacters": 2239, "Ġlisten": 2240, "Ġhistory": 2241, "aut": 2242, "Ġversion": 2243, "Ġcent": 2244, "Ġalone": 2245, "Ġmatch": 2246, "Ġspace": 2247, "ium": 2248, "Ġproduct": 2249, "Ġonline": 2250, "Ġaccept": 2251, "Ġton": 2252, "shit": 2253, "Ġweight": 2254, "Ġeasier": 2255, "Ġprogram": 2256, "Ġjoke": 2257, "Ġcas": 2258, "omb": 2259, "Ġcamp": 2260, "Ġlooked": 2261, "Ġdiscuss": 2262, "Ġcult": 2263, "Ġquality": 2264, "Ġchildren": 2265, "Ġsqu": 2266, "Ġwind": 2267, "ING": 2268, "OO": 2269, "lish": 2270, "ified": 2271, "Ġvalue": 2272, "Ġmeet": 2273, "Ġdrug": 2274, "Ġbase": 2275, "ata": 2276, "Ġmine": 2277, "ĠOb": 2278, "Ġmother": 2279, "Ġcrit": 2280, "Ġinclud": 2281, "Ġperform": 2282, "Ġrespect": 2283, "Ġgold": 2284, "ror": 2285, "ĠOk": 2286, "atic": 2287, "ĠðŁ": 2288, "Ġcontent": 2289, "ĠMar": 2290, "ES": 2291, "Ġgone": 2292, "Ġfeels": 2293, "Ġmeant": 2294, "Ġlea": 2295, "ta": 2296, "Ġfavorite": 2297, "pped": 2298, "ource": 2299, "Ġbunch": 2300, "Ġsave": 2301, "Ġwife": 2302, "Ġseriously": 2303, "Ġspecial": 2304, "Ġran": 2305, "cl": 2306, "though": 2307, "Ġchoice": 2308, "Ġcollege": 2309, "ĠNew": 2310, "unt": 2311, "Ġroll": 2312, "Ġcomments": 2313, "Ġreading": 2314, "Ġcards": 2315, "ĠAfter": 2316, "Ġgives": 2317, "Ġenem": 2318, "Ġcir": 2319, "Ġyoung": 2320, "Ġoption": 2321, "Ġavail": 2322, "Ġpersonal": 2323, "Ġbill": 2324, "Ġimpro": 2325, "Ġconn": 2326, "ls": 2327, "Ġpen": 2328, "Ġment": 2329, "Ġchoo": 2330, "ules": 2331, "Ġinvol": 2332, "work": 2333, "ĠWhich": 2334, "Ġbenef": 2335, "Ġpotent": 2336, "Ġstar": 2337, "Ġtrad": 2338, "Ġrecord": 2339, "amer": 2340, "Ġterrible": 2341, "Ġserious": 2342, "ĠEng": 2343, "que": 2344, "Ġnecess": 2345, "arth": 2346, "Ġshows": 2347, "ĠTHE": 2348, "Ġsleep": 2349, "Ġitself": 2350, "Ġdecent": 2351, "ky": 2352, "Ġtaken": 2353, "ĠWhere": 2354, "Ġepis": 2355, "Ġtou": 2356, "Ġmiddle": 2357, "?\"": 2358, "Ġposition": 2359, "off": 2360, "Ġwithin": 2361, "ero": 2362, "ĠSu": 2363, "Ġdoubt": 2364, "ĠMe": 2365, "Ġhero": 2366, "Ġemploy": 2367, "Ġmostly": 2368, "ute": 2369, "ĠNe": 2370, "Ġstick": 2371, "ored": 2372, "ĠPC": 2373, "how": 2374, "arr": 2375, "Ġ:(": 2376, "Ġkey": 2377, "Ġstep": 2378, "hh": 2379, "Ġris": 2380, "ony": 2381, "Ġcat": 2382, "Ġhimself": 2383, "verse": 2384, "Ġdad": 2385, "ilt": 2386, "Ġspeak": 2387, "cing": 2388, "oun": 2389, "Ġheav": 2390, "Ġobviously": 2391, "ĠSorry": 2392, "iced": 2393, "ED": 2394, "ĠApp": 2395, "par": 2396, "Ġocc": 2397, "ulation": 2398, ".)": 2399, "Ġaverage": 2400, "iot": 2401, "lex": 2402, "Ġaccess": 2403, "Ġwhether": 2404, "Ġdumb": 2405, "att": 2406, "Ġbur": 2407, "Ġlate": 2408, "Ġrece": 2409, "ĠWas": 2410, "Ġabove": 2411, "anger": 2412, "Ġcoun": 2413, "Ġallowed": 2414, "gest": 2415, "sy": 2416, "ese": 2417, "ĠCanad": 2418, "ends": 2419, "Ġavailable": 2420, "Ġkilled": 2421, "Ġsimple": 2422, "Ġforget": 2423, "icult": 2424, "Ġnews": 2425, "empt": 2426, "Ġoriginal": 2427, "Ġstarting": 2428, "irt": 2429, "ĠSer": 2430, "Ġra": 2431, "Ġsuccess": 2432, "ology": 2433, "Ġprefer": 2434, "ĠEDIT": 2435, "Ġinternet": 2436, "Ġterm": 2437, "Ġmist": 2438, "istic": 2439, "Ġlower": 2440, "ges": 2441, "Ġlink": 2442, "Ġcomput": 2443, "Ġpersonally": 2444, "ĠReddit": 2445, "Ġ200": 2446, "Ġinformation": 2447, "ĠHis": 2448, "Ġsong": 2449, "Ġcannot": 2450, "Ġbal": 2451, "Ġsever": 2452, "Ġ?": 2453, "Ġ[": 2454, "Ġswe": 2455, "form": 2456, "Ġla": 2457, "Ġdeser": 2458, "ĠFuck": 2459, "Ġconv": 2460, "action": 2461, "Ġbi": 2462, "Ġshitty": 2463, "Ġmot": 2464, "Ġskin": 2465, "Ġfill": 2466, "imate": 2467, "Ġpicture": 2468, "aming": 2469, "Ġannoy": 2470, "Ġpriv": 2471, "!\"": 2472, "Ġassume": 2473, "aper": 2474, "ĠGet": 2475, "arently": 2476, "ok": 2477, "Ġdoll": 2478, "Ġpun": 2479, "oogle": 2480, "Ġlack": 2481, "ube": 2482, "Ġer": 2483, "oke": 2484, "Ġheart": 2485, "Ġbegin": 2486, "Ġimm": 2487, "Ġokay": 2488, "Ġdifficult": 2489, "Ġhair": 2490, "Ġ~": 2491, "Ġavoid": 2492, "Ġwords": 2493, "Ġregard": 2494, "Ġcurrently": 2495, "ping": 2496, "Ġhands": 2497, "Ġquestions": 2498, "Ġmanag": 2499, "ruct": 2500, "iculous": 2501, "Ġwalk": 2502, "back": 2503, "Ġpolice": 2504, "aa": 2505, "acking": 2506, "Ġtelling": 2507, "my": 2508, "ĠGu": 2509, "ware": 2510, "Ġability": 2511, "Ġjump": 2512, "Ġforce": 2513, "Ġthrow": 2514, "Ġbuying": 2515, "ended": 2516, "Ġsold": 2517, "Ġwilling": 2518, "astic": 2519, "ĠAmerica": 2520, "Ġdrink": 2521, "Ġdecided": 2522, "Ġ40": 2523, "Ġoffic": 2524, "Ġenc": 2525, "room": 2526, "30": 2527, "Ġclearly": 2528, "Ġincred": 2529, "Ġspecific": 2530, "Ġseveral": 2531, "Ġfocus": 2532, "Ġlocal": 2533, "ency": 2534, "Ġviol": 2535, "Ġchanged": 2536, "Ġteac": 2537, "reddit": 2538, "Ġsize": 2539, "Ġrecently": 2540, "Ġtar": 2541, "angu": 2542, "IS": 2543, "ĠPS": 2544, "ucks": 2545, "Ġexpensive": 2546, "enty": 2547, "Ġbecom": 2548, "Ġport": 2549, "?!": 2550, "Ġfur": 2551, "Ġscreen": 2552, "Ġbaby": 2553, "ays": 2554, "Ġwaiting": 2555, "idering": 2556, "lus": 2557, "ĠAd": 2558, "Ġcry": 2559, "Ġadvice": 2560, "ĠKe": 2561, "arely": 2562, "cks": 2563, "Ġdesc": 2564, "Ġphot": 2565, "ĠIS": 2566, "Ġtowards": 2567, "Ġrespons": 2568, "fortun": 2569, "ript": 2570, "akes": 2571, "Ġjud": 2572, "ams": 2573, "ĠAN": 2574, "Ġreasons": 2575, "Ġreturn": 2576, "ze": 2577, "ĠSomet": 2578, "Ġspot": 2579, "rest": 2580, "Ġargument": 2581, "Ġacross": 2582, "Ġedit": 2583, "oly": 2584, "Ġ|": 2585, "----": 2586, "Ġpaying": 2587, "Ġfat": 2588, "Ġsoci": 2589, "Ġbullshit": 2590, "Ġpartic": 2591, "Ġtur": 2592, "Ġgain": 2593, "EA": 2594, "het": 2595, "Ġgirls": 2596, "ĠWar": 2597, "Ġridiculous": 2598, "apt": 2599, "Ġtext": 2600, "emp": 2601, "orth": 2602, "pro": 2603, "Ġbed": 2604, "Ġ18": 2605, "Ġextremely": 2606, "lim": 2607, "Ġlegal": 2608, "box": 2609, "medi": 2610, "Ġshop": 2611, "Ġways": 2612, "icking": 2613, "lying": 2614, "Ġturned": 2615, "ĠPr": 2616, "Ġmultiple": 2617, "ination": 2618, "ĠRuss": 2619, "Ġhurt": 2620, "got": 2621, "Ġworry": 2622, "Ġrelease": 2623, "izz": 2624, "Ġblood": 2625, "Ġrules": 2626, "go": 2627, "Ġsafe": 2628, "Ġmedia": 2629, "Ġnet": 2630, "Ġrange": 2631, "what": 2632, "ĠThese": 2633, "Ġspent": 2634, "ĠGr": 2635, "ĠSure": 2636, "ĠChe": 2637, "eal": 2638, "Ġfucked": 2639, "Ġpopular": 2640, "ressed": 2641, "ected": 2642, "Ġroad": 2643, "Ġfinally": 2644, "conom": 2645, "Ġhowever": 2646, "EE": 2647, "Ġplaces": 2648, "ĠRep": 2649, "Ġground": 2650, "ibility": 2651, "Ġoffer": 2652, "Ġweak": 2653, "urope": 2654, "ister": 2655, "Ġpiss": 2656, "ability": 2657, "ands": 2658, "Ġservice": 2659, "Ġcertainly": 2660, "200": 2661, "idered": 2662, "Ġ#": 2663, "Ġprop": 2664, "just": 2665, "Ġstri": 2666, "ox": 2667, "rap": 2668, "Ġleague": 2669, "Ġattention": 2670, "Ġdestro": 2671, "ser": 2672, "ĠHonest": 2673, "Ġeyes": 2674, "ĠHey": 2675, "Ġmax": 2676, "Ġload": 2677, "Ġputting": 2678, "Ġcompan": 2679, "Ġdoct": 2680, "Ġconsidered": 2681, "Ġdeep": 2682, "Ġdark": 2683, "CK": 2684, "Ġstream": 2685, "ury": 2686, "Ġinside": 2687, "vies": 2688, "Ġbott": 2689, "Ġhaha": 2690, "reci": 2691, "book": 2692, "ction": 2693, "Ġdisapp": 2694, "lement": 2695, "Ġdoor": 2696, "Ġlab": 2697, "Ġsurprised": 2698, "Ġtrack": 2699, "bit": 2700, "ĠPre": 2701, "Ġbeha": 2702, "Ġsuck": 2703, "Ġlives": 2704, "Ġdownvot": 2705, "ization": 2706, "Ġwrit": 2707, "ĠOf": 2708, "Ġear": 2709, "Ġconcern": 2710, "come": 2711, "Ġdisag": 2712, "ĠCom": 2713, "Ġcomplete": 2714, "Ġult": 2715, "Ġchanges": 2716, "Ġchoose": 2717, "Ġforward": 2718, "Ġengine": 2719, "ledge": 2720, "haps": 2721, "Ġbuilding": 2722, "Ġposts": 2723, "Ġfund": 2724, "Ġpiece": 2725, "Ġslight": 2726, "ender": 2727, "Ġeconom": 2728, "which": 2729, "Ġglad": 2730, "Ġknown": 2731, "Ġassh": 2732, "Ġdraw": 2733, "Ġconvers": 2734, "Ġgenerally": 2735, "Ġest": 2736, "Ġmajority": 2737, "Ġcarry": 2738, "ĠFl": 2739, "cer": 2740, "ades": 2741, "ĠPlease": 2742, "Ġ...": 2743, "oles": 2744, "aced": 2745, "Ġsubreddit": 2746, "Ġdick": 2747, "Ġmillion": 2748, "Ġfield": 2749, "ĠWhile": 2750, "Ġsetting": 2751, "arily": 2752, "Ġaf": 2753, "OR": 2754, "Ġ,": 2755, "Ġimmedi": 2756, "Ġround": 2757, "Ġgrow": 2758, "Ġda": 2759, "Ġtown": 2760, "Ġtrust": 2761, "Ġgotten": 2762, "ĠYOU": 2763, "Ġlangu": 2764, "de": 2765, "Ġrese": 2766, "llen": 2767, "Ġreport": 2768, "uly": 2769, "ĠTw": 2770, "Ġrate": 2771, "Ġproject": 2772, "irm": 2773, "ivid": 2774, "Ġitems": 2775, "Ġtarget": 2776, "ails": 2777, "ression": 2778, "amn": 2779, "Ġtitle": 2780, "over": 2781, "hip": 2782, "aff": 2783, "__": 2784, "eral": 2785, "ĠHope": 2786, "ker": 2787, "Ġbrother": 2788, "uth": 2789, "ears": 2790, "Ġdate": 2791, "Ġcredit": 2792, "Ġcover": 2793, "Ġmissing": 2794, "Ġmentioned": 2795, "reed": 2796, "ances": 2797, "ĠOnly": 2798, "Ġspell": 2799, "Ġready": 2800, "ĠFirst": 2801, "ĠAg": 2802, "izing": 2803, "erence": 2804, "Ġended": 2805, "min": 2806, "Ġfeed": 2807, "nam": 2808, "Ġquickly": 2809, "Ġdata": 2810, "key": 2811, "Ġdeg": 2812, "Ġbooks": 2813, "Ġnumb": 2814, "Ġlots": 2815, "af": 2816, "aster": 2817, "ĠCon": 2818, "ooks": 2819, "Ġ16": 2820, "Ġcy": 2821, "gon": 2822, "Ġtick": 2823, "ĠQu": 2824, "Ġjobs": 2825, "light": 2826, "Ġboss": 2827, "Ġthank": 2828, "Ġgay": 2829, "Ġposted": 2830, "Ġmach": 2831, "time": 2832, "ured": 2833, "Ġpurp": 2834, "echan": 2835, "erman": 2836, "Ġterms": 2837, "Ġ25": 2838, "The": 2839, "bers": 2840, "ĠHonestly": 2841, "Ġmovies": 2842, "Ġner": 2843, "Ġlegit": 2844, "Ġsomewhere": 2845, "Ġcalling": 2846, "do": 2847, "Ġdiv": 2848, "ĠWill": 2849, "vant": 2850, "Ġbiggest": 2851, "Ġadded": 2852, "Ġprofess": 2853, "ai": 2854, "Ġmoving": 2855, "Ġflo": 2856, "ĠWor": 2857, "Ġanti": 2858, "ST": 2859, "Ġstyle": 2860, "Ġarticle": 2861, "Ġsucks": 2862, "MO": 2863, "Ġapart": 2864, "ney": 2865, "Ġappreci": 2866, "ĠWow": 2867, "Ġcompared": 2868, "cking": 2869, "Ġcomputer": 2870, "but": 2871, "Ġgrand": 2872, "ration": 2873, "Ġthats": 2874, "Ġ90": 2875, "Ġevidence": 2876, "Ġsurv": 2877, "Ġblock": 2878, "Ġilleg": 2879, "Ġthreat": 2880, "Ġhasn": 2881, "Ġemot": 2882, "ĠThose": 2883, "oph": 2884, "ouble": 2885, "Ġregular": 2886, "Ġhelps": 2887, "ĠPer": 2888, "oil": 2889, "Ġnotice": 2890, "ĠInd": 2891, "Ġrace": 2892, "Ġshare": 2893, "ĠCha": 2894, "ĠTV": 2895, "Ġcurious": 2896, "Ġmix": 2897, "Ġsusp": 2898, "Ġcars": 2899, "80": 2900, "Ġbigger": 2901, "Ġupgr": 2902, "Ġcant": 2903, "arb": 2904, "PS": 2905, "Ġbrain": 2906, "Ġkept": 2907, "Ġmap": 2908, "Ġparts": 2909, "ding": 2910, "Ġ14": 2911, "gn": 2912, "Ġorgan": 2913, "Ġcreate": 2914, "den": 2915, "Ġminim": 2916, "fortunately": 2917, "Ġgoal": 2918, "onse": 2919, "Ġvol": 2920, "Ġattract": 2921, "Ġbag": 2922, "ĠEurope": 2923, "ival": 2924, "ĠFrom": 2925, "Ġweren": 2926, "Ġmur": 2927, "eed": 2928, "iod": 2929, "ĠStill": 2930, "Ġcompanies": 2931, "Ġlock": 2932, "ĠLol": 2933, "Ġsick": 2934, "Ġkick": 2935, "ĠSw": 2936, "cher": 2937, "vert": 2938, "Ġtank": 2939, "ergy": 2940, "Ġsmart": 2941, "Ġtend": 2942, "Ġconsidering": 2943, "Ġotherwise": 2944, "Ġoptions": 2945, "uel": 2946, "Ġ60": 2947, "Ġepisode": 2948, "ĠSte": 2949, "ĠSha": 2950, "Ġsuff": 2951, "Ġmechan": 2952, "Ġwrite": 2953, "Ġoppos": 2954, "Ġrout": 2955, "Ġcontinue": 2956, "Ġcross": 2957, "Ġtotal": 2958, "dition": 2959, "Ġbeaut": 2960, "apan": 2961, "board": 2962, "Ġeventually": 2963, "Ġlaugh": 2964, "Ġnobody": 2965, "port": 2966, "ana": 2967, "Ġstandard": 2968, "Ġdied": 2969, "Ġfemale": 2970, "Ġcast": 2971, "Ġcode": 2972, "aks": 2973, "Ġeye": 2974, "Ġ11": 2975, "erm": 2976, "Ġtre": 2977, "Ġolder": 2978, "Ġaware": 2979, "anna": 2980, "ĠOther": 2981, "AM": 2982, "Ġsil": 2983, "put": 2984, "Ġpolitical": 2985, "Ġweapons": 2986, "Ġobvious": 2987, "60": 2988, "Ġcand": 2989, "fortable": 2990, "Ġ;": 2991, "pping": 2992, "Ġfant": 2993, "Ġpotential": 2994, "Ġseconds": 2995, "Ġpush": 2996, "Ġdisagree": 2997, "Ġhappening": 2998, "ĠReally": 2999, "aur": 3000, "mor": 3001, "Ġblue": 3002, "Ġsociety": 3003, "Ġfour": 3004, "Ġsoft": 3005, "Ġdefense": 3006, "Ġweapon": 3007, "Ġnumbers": 3008, "Ġrad": 3009, "Ġliber": 3010, "Ġplenty": 3011, "ĠMc": 3012, "irth": 3013, "Ġdouble": 3014, "Ġindivid": 3015, "ĠPh": 3016, "Ġafford": 3017, "Ġstopped": 3018, "Ġrisk": 3019, "Ġcontract": 3020, "Ġmorning": 3021, "Ġeating": 3022, "ĠAct": 3023, "lit": 3024, "Ġident": 3025, "Ġcompar": 3026, "Ġsolid": 3027, "Ġtour": 3028, "Ġresponse": 3029, "ray": 3030, "Ġcontact": 3031, "Ġwatched": 3032, "Ġexperien": 3033, "Ġcountries": 3034, "Ġthird": 3035, "hor": 3036, "Ġloved": 3037, "AR": 3038, "Ġliked": 3039, "rim": 3040, "EN": 3041, "Ġnatur": 3042, "Ġhang": 3043, "Ġcamer": 3044, "mmer": 3045, "Ġdeb": 3046, "band": 3047, "rel": 3048, "Ġchallen": 3049, "Ġheal": 3050, "Ġexpl": 3051, "Ġess": 3052, "ĠGreat": 3053, "Ġdream": 3054, "ĠCould": 3055, "Ġguns": 3056, "Ġprogress": 3057, "Ġaud": 3058, "you": 3059, "Ġserver": 3060, "ilities": 3061, "Ġpolic": 3062, "Ġaction": 3063, "iful": 3064, "Ġpurcha": 3065, "Ġscene": 3066, "osp": 3067, "15": 3068, "ites": 3069, "itary": 3070, "Ġcharge": 3071, "ĠSame": 3072, "Ġloss": 3073, "Ġpossibly": 3074, "Ġmeaning": 3075, "Ġinvolved": 3076, "Ġobject": 3077, "Ġord": 3078, "lay": 3079, "bl": 3080, "Ġattempt": 3081, "miss": 3082, "Ġpus": 3083, "Ġsomehow": 3084, "Ġlad": 3085, "Ġsat": 3086, "son": 3087, "Ġswitch": 3088, "Ġfurther": 3089, "Ġchamp": 3090, "Ġracist": 3091, "ipping": 3092, "esus": 3093, "Ġboard": 3094, "Ġdom": 3095, "Ġkilling": 3096, "Ġdesp": 3097, "Ġcounter": 3098, "inc": 3099, "ĠIT": 3100, "Ġ--": 3101, "Ġden": 3102, "rom": 3103, "ifically": 3104, "urance": 3105, "Ġgear": 3106, "Ġimmediately": 3107, "dy": 3108, "Ġanywhere": 3109, "ey": 3110, "Ġthinks": 3111, "ived": 3112, "kend": 3113, "ĠWait": 3114, "Ġclub": 3115, "Ġcirc": 3116, "iet": 3117, "Ġlaws": 3118, "Ġdeck": 3119, "Ġeduc": 3120, "Ġenemy": 3121, "Ġbud": 3122, "hn": 3123, "Ġshut": 3124, "ext": 3125, "Ġinfl": 3126, "Ġfaster": 3127, "Ġdanger": 3128, "Ġdriving": 3129, "Ġperiod": 3130, "illy": 3131, "Ġbrand": 3132, "Ġmanage": 3133, "ĠBy": 3134, "ĠSO": 3135, "Ġharder": 3136, "ĠTry": 3137, "ĠEnglish": 3138, "Ġblo": 3139, "Ġlosing": 3140, "Ġnearly": 3141, "gend": 3142, "ume": 3143, "Ġhoping": 3144, "now": 3145, "Ġconsist": 3146, "Ġenergy": 3147, "Ġfather": 3148, "Ġknowing": 3149, "Ġsepar": 3150, "OW": 3151, "Ġlif": 3152, "Ġmale": 3153, "Ġentirely": 3154, "Ġmode": 3155, "ĠHell": 3156, "Ġpaper": 3157, "Ġque": 3158, "AS": 3159, "!!!": 3160, "Ġreduc": 3161, "Ġbother": 3162, "rupt": 3163, "Ġnote": 3164, "ĠDem": 3165, "Ġminor": 3166, "Ġoffice": 3167, "Ġmeth": 3168, "Ġfairly": 3169, "ĠEveryone": 3170, "Ġpan": 3171, "11": 3172, "rit": 3173, "Ġdestroy": 3174, "Ġbroken": 3175, "40": 3176, "Ġsitting": 3177, "pri": 3178, "rd": 3179, "Ġtravel": 3180, "Ġpage": 3181, "Ġdecision": 3182, "Ġcolor": 3183, "Ġrock": 3184, "ources": 3185, "Ġdig": 3186, "Ġprim": 3187, "Ġinstall": 3188, "ĠNOT": 3189, "oooo": 3190, "ossible": 3191, "Ġculture": 3192, "Ġang": 3193, "Ġforgot": 3194, "ipped": 3195, "ea": 3196, "Ġrights": 3197, "urity": 3198, "ĠSince": 3199, "Ġsignific": 3200, "Ġmassive": 3201, "Ġadvant": 3202, "Ġimprove": 3203, "Ġbasic": 3204, "Ġautom": 3205, "Ġlay": 3206, "erc": 3207, "Ġannoying": 3208, "Ġrule": 3209, "ortun": 3210, "Ġodd": 3211, "Ġknowledge": 3212, "Ġtruly": 3213, "ux": 3214, "Ġmad": 3215, "Ġnegative": 3216, "ĠSuper": 3217, "Ġtwice": 3218, "Ġson": 3219, "Ġupdate": 3220, "Ġhus": 3221, "Ġbottom": 3222, "Ġtable": 3223, "iction": 3224, "Ġhandle": 3225, "Ġprotect": 3226, "Ġreality": 3227, "Ġindividual": 3228, "ym": 3229, "Ġcontroll": 3230, "Ġfully": 3231, "Ġnoticed": 3232, "Ġburn": 3233, "Ġdecide": 3234, "Ġbuilt": 3235, "eng": 3236, "ĠSm": 3237, "Ġadmit": 3238, "Ġillegal": 3239, "Ġrole": 3240, "Ġmoved": 3241, "Ġuses": 3242, "Ġinj": 3243, "Ġlanguage": 3244, "Ġfell": 3245, "Ġstarts": 3246, "ĠUK": 3247, "Ġfighting": 3248, "Ġindust": 3249, "tery": 3250, "Ġtrain": 3251, "Ġsource": 3252, "Ġweekend": 3253, "ĠNever": 3254, "ĠProbably": 3255, "Ġship": 3256, "ĠRem": 3257, "Ġplays": 3258, "yond": 3259, "Ġpers": 3260, "Ġmessage": 3261, "ĠPlus": 3262, "Ġstates": 3263, "ĠBlack": 3264, "Ġpsy": 3265, "ĠJapan": 3266, "Ġawful": 3267, "Ġbon": 3268, "Ġnone": 3269, "Ġphysical": 3270, "Ġcash": 3271, "Ġconstantly": 3272, "bal": 3273, "ĠOnce": 3274, "Ġactiv": 3275, "ĠRight": 3276, "uz": 3277, "Ġenv": 3278, "ald": 3279, "ask": 3280, "raph": 3281, "Ġbehav": 3282, "Ġpurpose": 3283, "Ġapparently": 3284, "oes": 3285, "ĠSeriously": 3286, "Ġeffort": 3287, "Ġstuck": 3288, "Ġbrought": 3289, "Ġplus": 3290, "Ġoil": 3291, "ĠHere": 3292, "Ġteacher": 3293, "Ġbuff": 3294, "Ġsite": 3295, "ĠAust": 3296, "iding": 3297, "awn": 3298, "Ġitem": 3299, "Ġbirth": 3300, "ĠGerman": 3301, "Ġ^^": 3302, "Ġvoice": 3303, "mb": 3304, "gs": 3305, "ĠCanada": 3306, "Ġegg": 3307, "Ġstrugg": 3308, "Ġuseful": 3309, "ivil": 3310, "Ġsens": 3311, "Ġlines": 3312, "Ġadult": 3313, "OS": 3314, "ili": 3315, "Ġcommit": 3316, "Ġstock": 3317, "Ġheavy": 3318, "Ġtouch": 3319, "Ġincredibly": 3320, "ĠMore": 3321, "Ġpositive": 3322, "Ġlearned": 3323, "hood": 3324, "Ġhom": 3325, "resent": 3326, "Ġtho": 3327, "OL": 3328, "ipe": 3329, "Ġcrap": 3330, "uts": 3331, "Ġsexual": 3332, "Ġce": 3333, "cent": 3334, "Ġvideos": 3335, "Ġcareer": 3336, "Ġhorrible": 3337, "Ġreview": 3338, "*.": 3339, "Ġincrease": 3340, "Ġyell": 3341, "Ġremain": 3342, "Ġwriting": 3343, "ĠGot": 3344, "Ġcold": 3345, "Ġoper": 3346, "ises": 3347, "friend": 3348, "Ġskills": 3349, "Ġbattle": 3350, "ishing": 3351, "Ġtraining": 3352, "erial": 3353, "bor": 3354, "ĠMic": 3355, "Ġund": 3356, "Ġvari": 3357, "Ġtrouble": 3358, "Ġreligion": 3359, "Ġut": 3360, "Ġbank": 3361, "Ġmembers": 3362, "VE": 3363, "Ġpractice": 3364, "Ġfilm": 3365, "eth": 3366, "Ġslightly": 3367, "Ġfault": 3368, "Ġconcept": 3369, "Ġconversation": 3370, "Ġvict": 3371, "Ġexplo": 3372, "Ġthous": 3373, "ĠGoogle": 3374, "Ġtool": 3375, "bum": 3376, "Ġplat": 3377, "Ġblame": 3378, "Ġwanna": 3379, "Ġdirectly": 3380, "Ġrap": 3381, "ases": 3382, "fl": 3383, "ev": 3384, "ĠGen": 3385, "order": 3386, "asc": 3387, "anced": 3388, "por": 3389, "fs": 3390, "Ġprovide": 3391, "Ġmodel": 3392, "Ġinfo": 3393, "hol": 3394, "dden": 3395, "Ġfinal": 3396, "Ġahead": 3397, "Ġpresent": 3398, "vote": 3399, "Ġband": 3400, "ffic": 3401, "Ġmilitary": 3402, "Ġremind": 3403, "Ġ80": 3404, "Ġpred": 3405, "iron": 3406, "Ġ13": 3407, "Ġchick": 3408, "lier": 3409, "Ġlear": 3410, "Ġtruth": 3411, "Ġwebs": 3412, "terday": 3413, "Ġimpossible": 3414, "ii": 3415, "Ġparticular": 3416, "ĠðŁĺ": 3417, "Ġfear": 3418, "Ġfac": 3419, "Ġsudden": 3420, "ground": 3421, "Ġseemed": 3422, "Ġspecifically": 3423, "Ġexcited": 3424, "ĠStar": 3425, "asy": 3426, "ĠDef": 3427, "ners": 3428, "Ġaccur": 3429, "Ġstories": 3430, "entially": 3431, "Ġgrab": 3432, "oon": 3433, "Ġminute": 3434, "ĠCar": 3435, "Ġprior": 3436, "ĠInt": 3437, "Ġmaint": 3438, "ĠDis": 3439, "Ġpret": 3440, "Ġlevels": 3441, "Ġanal": 3442, "Ġrespond": 3443, "Ġfinish": 3444, "Ġrev": 3445, "Ġinsurance": 3446, "Ġdollars": 3447, "bed": 3448, "Ġkit": 3449, "Ġwondering": 3450, "Ġhusband": 3451, "Ġleaving": 3452, "lfriend": 3453, "hel": 3454, "Ġcatch": 3455, "Ġwaste": 3456, "Ġinterview": 3457, "Ġscrew": 3458, "Ġperformance": 3459, "Ġ24": 3460, "arant": 3461, "ĠRepublic": 3462, "using": 3463, "ators": 3464, "VER": 3465, "Ġmissed": 3466, "ĠJesus": 3467, "Ġscore": 3468, "ooking": 3469, "Ġreleased": 3470, "ĠST": 3471, "ĠLook": 3472, "Ġcaught": 3473, "Ġkeeping": 3474, "aked": 3475, "70": 3476, "Ġaffect": 3477, "ued": 3478, "Ġmob": 3479, "Ġrealized": 3480, "12": 3481, "Ġopportun": 3482, "raft": 3483, "Ġbeautiful": 3484, "Ġidiot": 3485, "Ġasshole": 3486, "Ġur": 3487, "rated": 3488, "Ġresearch": 3489, "ĠNice": 3490, "Ġadvantage": 3491, "esides": 3492, "olution": 3493, "ĠCal": 3494, "Ġdoctor": 3495, "Ġincluding": 3496, "Ġmaterial": 3497, "iring": 3498, "Ġhost": 3499, "Ġble": 3500, "ĠJohn": 3501, "Ġclot": 3502, "sec": 3503, "Ġfollowing": 3504, "ogn": 3505, "Ġselling": 3506, "Ġprevent": 3507, "Ġmic": 3508, "100": 3509, "Ġfake": 3510, "Ġprivate": 3511, "Ġrare": 3512, "ĠInst": 3513, "Ġalbum": 3514, "that": 3515, "Ġideas": 3516, "Ġhund": 3517, "aries": 3518, "Ġoverall": 3519, "Ġfinding": 3520, "ĠFU": 3521, "ĠHaha": 3522, "Ġrelated": 3523, "ĠBat": 3524, "Ġcosts": 3525, "Ġgreen": 3526, "ĠPretty": 3527, "Ġregul": 3528, "une": 3529, "bing": 3530, "Ġsubject": 3531, "cell": 3532, "ET": 3533, "Ġhundred": 3534, "ĠAM": 3535, "Ġbeyond": 3536, "Ġsweet": 3537, "ley": 3538, "aughter": 3539, "Ġinsane": 3540, "Ġtroll": 3541, "tw": 3542, "ĠAND": 3543, "Ġlucky": 3544, "nel": 3545, "aign": 3546, "Ġlearning": 3547, "Ġlimit": 3548, "Ġraid": 3549, "Ġtheory": 3550, "Ġbecame": 3551, "Ġdrugs": 3552, "ule": 3553, "Ġten": 3554, "Ġremove": 3555, "cast": 3556, "Ġfing": 3557, "Ġsou": 3558, "wor": 3559, "Ġpowerful": 3560, "Ġglo": 3561, "ees": 3562, "ĠShould": 3563, "Ġappreciate": 3564, "asing": 3565, "Ġwearing": 3566, "Ġbeer": 3567, "Ġwalking": 3568, "ĠEsp": 3569, "Ġgrad": 3570, "Ġcamera": 3571, "ij": 3572, "ĠDra": 3573, "ĠBet": 3574, "Ġneigh": 3575, "Ġupset": 3576, "ĠSometimes": 3577, "amed": 3578, "ires": 3579, "Ġfrust": 3580, "Ġbecomes": 3581, "Ġappear": 3582, "Ġrefer": 3583, "Ġregardless": 3584, "Ġhealthy": 3585, "Ġforced": 3586, "aul": 3587, "raid": 3588, "Ġperfectly": 3589, "Ġrepe": 3590, "Ġpsych": 3591, "ached": 3592, "Ġrent": 3593, "Ġaddress": 3594, "itiz": 3595, "AY": 3596, "Ġmeat": 3597, "Ġcook": 3598, "Ġbanned": 3599, "oura": 3600, "Ġhun": 3601, "ĠTe": 3602, "Ġarmor": 3603, "Ġinit": 3604, "ops": 3605, "Ġincome": 3606, "Ġholding": 3607, "Ġfootball": 3608, "Ġmods": 3609, "Ġbarely": 3610, "chie": 3611, "Ġbitch": 3612, "Ġzero": 3613, "ĠLi": 3614, "Ġwinning": 3615, "Ġtomor": 3616, "IL": 3617, "ĠUnless": 3618, "Ġaccident": 3619, "ĠPerson": 3620, "Ġdegree": 3621, "yr": 3622, "Ġruns": 3623, "ĠPlay": 3624, "Ġimpact": 3625, "Ġexpected": 3626, "Ġconfused": 3627, "Ġoh": 3628, "vent": 3629, "ĠNothing": 3630, "Ġdespite": 3631, "Ġgirlfriend": 3632, "tr": 3633, "Ġsmell": 3634, "Ġtomorrow": 3635, "ĠAnyone": 3636, "Ġyesterday": 3637, "ĠLooks": 3638, "PU": 3639, "versity": 3640, "inting": 3641, "Ġprices": 3642, "Ġvac": 3643, "Ġnecessary": 3644, "Ġcreated": 3645, "Ġmental": 3646, "Ġborn": 3647, "Ġhighly": 3648, "ĠDamn": 3649, "Ġlived": 3650, "val": 3651, "Ġturns": 3652, "Ġdepends": 3653, "Ġkeeps": 3654, "ĠEn": 3655, "Ġprevious": 3656, "Ġcampaign": 3657, "Ġdun": 3658, "Ġtaxes": 3659, "Ġpure": 3660, "ĠHer": 3661, "ĠCo": 3662, "Ġgas": 3663, "urch": 3664, "Ġbenefit": 3665, "ids": 3666, "Ġdiscussion": 3667, "Ġmagic": 3668, "Ġesc": 3669, "reg": 3670, "Ġfol": 3671, "Ġcollect": 3672, "Ġbroke": 3673, "Ġconserv": 3674, "ural": 3675, "Ġpicked": 3676, "Ġver": 3677, "ĠObama": 3678, "Ġdaily": 3679, "ĠWH": 3680, "ĠHill": 3681, "Ġalthough": 3682, "roduc": 3683, "ĠSounds": 3684, "Ġpregn": 3685, "Ġdeli": 3686, "cohol": 3687, "Ġmethod": 3688, "Ġbutton": 3689, "Ġsolution": 3690, "lee": 3691, "Ġpet": 3692, "Ġporn": 3693, "Ġcopy": 3694, "Ġcore": 3695, "Ġtalent": 3696, "odes": 3697, "uine": 3698, "Ġmouth": 3699, "Ġonto": 3700, "Ġspending": 3701, "Ġjudge": 3702, "Ġhelped": 3703, "ording": 3704, "Ġreb": 3705, "ĠMus": 3706, "Ġintell": 3707, "ication": 3708, "iest": 3709, "atives": 3710, "Ġrich": 3711, "Ġlane": 3712, "Ġquit": 3713, "Ġrepresent": 3714, "Ġenviron": 3715, "Ġrecogn": 3716, "Ġdraft": 3717, "Ġpow": 3718, "ĠEU": 3719, "uit": 3720, "atively": 3721, "Ġremoved": 3722, "urs": 3723, "Ġdriver": 3724, "ĠIN": 3725, "Ġbelow": 3726, "ĠDep": 3727, "Ġsmaller": 3728, "uses": 3729, "Ġmachine": 3730, "II": 3731, "ĠKeep": 3732, "Ġcheaper": 3733, "Ġmarried": 3734, "Ġgroups": 3735, "Ġopposite": 3736, "Ġstats": 3737, "Ġafraid": 3738, "ĠSec": 3739, "Ġclasses": 3740, "Ġfed": 3741, "Ġwritten": 3742, "ario": 3743, "Ġbalance": 3744, "Ġmodern": 3745, "25": 3746, "Ġreach": 3747, "Ġride": 3748, "Ġtough": 3749, "ĠBas": 3750, "Ġmistake": 3751, "Ġpopulation": 3752, "Ġtrip": 3753, "Ġshowing": 3754, "Ġnames": 3755, "ĠVery": 3756, "Ġdoc": 3757, "Ġsummer": 3758, "Ġreasonable": 3759, "Ġlimited": 3760, "Ġunderstanding": 3761, "Ġevil": 3762, "Ġshooting": 3763, "ĠEspecially": 3764, "Ġtaste": 3765, "OM": 3766, "Ġstreet": 3767, "~~": 3768, "Ġwanting": 3769, "Ġtrash": 3770, "Ġcases": 3771, "Ġresults": 3772, "Ġevents": 3773, "Ġcontext": 3774, "31": 3775, "ĠId": 3776, "itude": 3777, "well": 3778, "OP": 3779, "Ġselect": 3780, "ĠBig": 3781, "Ġforever": 3782, "Ġoppon": 3783, "ĠAmericans": 3784, "pper": 3785, "ino": 3786, "arc": 3787, "ĠWal": 3788, "ups": 3789, "Ġfeet": 3790, "ĠDr": 3791, "Ġ17": 3792, "face": 3793, "aged": 3794, "sole": 3795, "Ġargue": 3796, "Ġsun": 3797, "Ġguarant": 3798, "Ġsales": 3799, "Ġuser": 3800, "Ġboring": 3801, "Ġdangerous": 3802, "Ġassuming": 3803, "Ġgaming": 3804, "Ġple": 3805, "Ġsister": 3806, "Ġdeserve": 3807, "Ġconnect": 3808, "Ġfive": 3809, "Ġrequired": 3810, "ĠCol": 3811, "Ġcourt": 3812, "Ġrecent": 3813, "Ġsplit": 3814, "ĠOver": 3815, "Ġworried": 3816, "Ġreligious": 3817, "Ġfunction": 3818, "ĠActually": 3819, "Ġcivil": 3820, "Ġlikes": 3821, "Ġusers": 3822, "Ġsecurity": 3823, "ĠSim": 3824, "Ġupon": 3825, "Ġprep": 3826, "Ġ;)": 3827, "Ġbike": 3828, "99": 3829, "ĠChina": 3830, "Ġnatural": 3831, "Ġbeginning": 3832, "Ġveh": 3833, "'.": 3834, "arian": 3835, "Ġflat": 3836, "Ġignore": 3837, ".....": 3838, "Ġlat": 3839, "ĠHA": 3840, "Ġstudent": 3841, "down": 3842, "Ġeverywhere": 3843, "Ġpictures": 3844, "Ġgrind": 3845, "Ġclick": 3846, "Ġareas": 3847, "Ġconsum": 3848, "ĠSee": 3849, "ĠHar": 3850, "Ġachie": 3851, "Ġspread": 3852, "Ġdoesnt": 3853, "ionally": 3854, "ĠHal": 3855, "Ġcoff": 3856, "Ġgotta": 3857, "Ġminimum": 3858, "Ġsmoke": 3859, "itor": 3860, "Ġposting": 3861, "Ġglass": 3862, "Ġthoughts": 3863, "Ġwins": 3864, "Ġpresident": 3865, "Ġwild": 3866, "Ġproperly": 3867, "Ġstudents": 3868, "Ġlie": 3869, "ables": 3870, "Ġaltern": 3871, "Ġindustry": 3872, "Ġperspect": 3873, "aker": 3874, "Ġchanging": 3875, "Ġdownload": 3876, "Ġbudget": 3877, ",\"": 3878, "Ġchat": 3879, "ID": 3880, "ĠFin": 3881, "ĠDude": 3882, "enn": 3883, "idge": 3884, "ka": 3885, "ĠRussia": 3886, "HA": 3887, "atures": 3888, "Ġfloor": 3889, "Ġice": 3890, "Ġperhaps": 3891, "Ġaim": 3892, "Ġreact": 3893, "ĠAb": 3894, "Ġcombat": 3895, "aging": 3896, "ament": 3897, "Ġoccas": 3898, "rand": 3899, "Ġpressure": 3900, "Ġemail": 3901, "Ġtier": 3902, "Ġdidnt": 3903, "Ġfinished": 3904, "roid": 3905, "oms": 3906, "Ġfarm": 3907, "riage": 3908, "gers": 3909, "Ġjoin": 3910, "Ġactions": 3911, "Ġdin": 3912, "Ġapply": 3913, "Ġdogs": 3914, "ĠSomeone": 3915, "Ġeffects": 3916, "uing": 3917, "Ġdropped": 3918, "Ġ&#": 3919, "Ġsem": 3920, "sters": 3921, "Ġqual": 3922, "Ġearth": 3923, "Ġunf": 3924, "ĠApple": 3925, "uke": 3926, "Ġauthor": 3927, "yn": 3928, "Ġrough": 3929, "ĠSeems": 3930, "night": 3931, "Ġrob": 3932, "Ġflag": 3933, "Ġscience": 3934, "Ġfixed": 3935, "ĠGl": 3936, "ains": 3937, "Ġcapital": 3938, "Ġalive": 3939, "Ġemb": 3940, "Ġsecret": 3941, "Ġunc": 3942, "Ġenvironment": 3943, "imately": 3944, "ott": 3945, "?)": 3946, "Ġimo": 3947, "ills": 3948, "Ġmount": 3949, "ĠON": 3950, "Ġearlier": 3951, "Ã©": 3952, "Ġcreep": 3953, "lied": 3954, "ĠLast": 3955, "Ġreplace": 3956, "Ġsteal": 3957, "ences": 3958, "Ġstrate": 3959, "Ġscr": 3960, "Ġsand": 3961, "anc": 3962, "ĠAh": 3963, "Ġcomfortable": 3964, "ification": 3965, "Ġalcohol": 3966, "Ġmedical": 3967, "!!!!": 3968, "ceed": 3969, "Ġproof": 3970, "Ġuniverse": 3971, "Ġcritic": 3972, "anks": 3973, "ĠIMO": 3974, "mas": 3975, "rs": 3976, "ĠMin": 3977, "Ġwebsite": 3978, "Ġpath": 3979, "ĠAD": 3980, "ĠAss": 3981, "Ġbath": 3982, "icles": 3983, "ĠOur": 3984, "Ġcandid": 3985, "ĠBoth": 3986, "ĠiP": 3987, "ĠBrit": 3988, "Ġtired": 3989, "aught": 3990, "Ġprofit": 3991, "Ġnature": 3992, "Ġconfirm": 3993, "Ġweed": 3994, "Ġgenuine": 3995, "Ġdry": 3996, "Ġcitiz": 3997, "Ġangry": 3998, "Ġswit": 3999, "Ġcrime": 4000, "Ġactive": 4001, "Ġdefend": 4002, "ening": 4003, "Ġends": 4004, "itions": 4005, "ĠAustral": 4006, "Ġfly": 4007, "mg": 4008, "ĠBest": 4009, "isions": 4010, "hest": 4011, "Ġtrick": 4012, "Ġstreng": 4013, "Ġcond": 4014, "Ġsaving": 4015, "asure": 4016, "ĠOkay": 4017, "Ġjer": 4018, "Ġblow": 4019, "Ġtow": 4020, "alse": 4021, "ĠAw": 4022, "ened": 4023, "ĠBeing": 4024, "Ġhumans": 4025, "Ġconsole": 4026, "Ġwhenever": 4027, "Ġbattery": 4028, "Ġperspective": 4029, "Ġrot": 4030, "Ġstatement": 4031, "Ġhearing": 4032, "iday": 4033, "Ġimage": 4034, "IC": 4035, "LC": 4036, "Ġreply": 4037, "Ġuseless": 4038, "ĠMon": 4039, "Ġessentially": 4040, "ĠMake": 4041, "Ġtypes": 4042, "Ġhosp": 4043, "ĠWind": 4044, "ĠTO": 4045, "Ġheat": 4046, "anted": 4047, "Ġsearch": 4048, "anch": 4049, "Ġsolo": 4050, "Ġupgrade": 4051, "oices": 4052, "itter": 4053, "Ġcops": 4054, "Ġacting": 4055, "Ġpolicy": 4056, "Ġwindow": 4057, "ĠTheir": 4058, "ĠFe": 4059, "Ġbow": 4060, "ĠRo": 4061, "Ġdownvoted": 4062, "Ġbehavior": 4063, "ota": 4064, "Ġdisappoint": 4065, "rench": 4066, "Ġcompetitive": 4067, "Ġbudd": 4068, "Ġpark": 4069, "ris": 4070, "Ġearn": 4071, "Ġvar": 4072, "ading": 4073, "Ġlegend": 4074, "ounce": 4075, "Ġpair": 4076, "UT": 4077, "ĠDark": 4078, "Ġdemand": 4079, "ifying": 4080, "Ġcrow": 4081, "Ġkills": 4082, "Ġsports": 4083, "Ġdevelopment": 4084, "Ġele": 4085, "ĠLove": 4086, "Ġring": 4087, "Ġsomebody": 4088, "met": 4089, "ĠCong": 4090, "Ġhits": 4091, "\"?": 4092, "zen": 4093, "rees": 4094, "inese": 4095, "Ġunlike": 4096, "ords": 4097, "can": 4098, "icularly": 4099, "Ġanimals": 4100, "under": 4101, "Ġlaz": 4102, "Ġ~~": 4103, "real": 4104, "DR": 4105, "Ġlogic": 4106, "Ġfresh": 4107, "Ġcoffee": 4108, "ĠChar": 4109, "Ġpolitics": 4110, "Ġlarger": 4111, "gen": 4112, "Ġvalid": 4113, "ĠDemocr": 4114, "ĠCur": 4115, "AC": 4116, "Ġnecessarily": 4117, "ĠFUCK": 4118, "Ġshield": 4119, "uu": 4120, "Ġshowed": 4121, "Ġtem": 4122, "hange": 4123, "Ġdrunk": 4124, "gar": 4125, "Ġ70": 4126, "Ġending": 4127, "Ġpulled": 4128, "ĠChristian": 4129, "agn": 4130, "iles": 4131, "Ġprove": 4132, "Ġamong": 4133, "iving": 4134, "ĠKing": 4135, "Ġfrequ": 4136, "rict": 4137, "Ġtrail": 4138, "osh": 4139, "Ġvia": 4140, "Ġdepending": 4141, "Ġseparate": 4142, "Ġscream": 4143, "Ġgym": 4144, "ĠWorld": 4145, "Ġdrinking": 4146, "ĠTake": 4147, "Ġcart": 4148, "pet": 4149, "Ġmovement": 4150, "Ġmer": 4151, "iven": 4152, "Ġshame": 4153, "Ġlic": 4154, "ales": 4155, "ga": 4156, "Ġdaughter": 4157, "nces": 4158, "ĠFace": 4159, "ribe": 4160, "ĠHoly": 4161, "Ġmaster": 4162, "initely": 4163, "ĠAmaz": 4164, "oe": 4165, "Ġharm": 4166, "aching": 4167, "atically": 4168, "bh": 4169, "Ġcalls": 4170, "Ġrestaur": 4171, "ds": 4172, "Ġcell": 4173, "iment": 4174, "Ġfigured": 4175, "rop": 4176, "lies": 4177, "Ġeffective": 4178, "Ġplanning": 4179, "ograph": 4180, "Ġrape": 4181, "Ġreaction": 4182, "Ġcontrib": 4183, "ppy": 4184, "ĠSS": 4185, "tf": 4186, "ĠOK": 4187, "Ġinclude": 4188, "Ġnor": 4189, "rate": 4190, "ĠEither": 4191, "ĠHopefully": 4192, "Ġaspect": 4193, "Ġgender": 4194, "acks": 4195, "ĠKore": 4196, "ĠTy": 4197, "Ġeducation": 4198, "Ġrequest": 4199, "arm": 4200, "Ġtalked": 4201, "Ġprem": 4202, "Ġya": 4203, "Ġnational": 4204, "Ġsomewhat": 4205, "Ġfeelings": 4206, "Ġpercent": 4207, "Ġbreat": 4208, "Ġadding": 4209, "Ġ:/": 4210, "Ġcrim": 4211, "Ġignor": 4212, "Ġfolks": 4213, "ension": 4214, "AL": 4215, "Ġproducts": 4216, "Ġtip": 4217, "Ġmoves": 4218, "FL": 4219, "Ġdirection": 4220, "Ġattacks": 4221, "Ġpissed": 4222, "kin": 4223, "iers": 4224, "Ġboost": 4225, "oh": 4226, "Ġvictim": 4227, "Ġyours": 4228, "ĠCons": 4229, "Ġdemocr": 4230, "tion": 4231, "Ġinflu": 4232, "Ġscared": 4233, "ĠNet": 4234, "Ġlets": 4235, "Ġstrange": 4236, "spect": 4237, "Ġsale": 4238, "Ġplot": 4239, "ĠBro": 4240, "Ġexcuse": 4241, "ession": 4242, "ĠSy": 4243, "ĠBasically": 4244, "Ġsuppose": 4245, "Ġfile": 4246, "Ġ^": 4247, "ĠAT": 4248, "Ġprofessional": 4249, "Ġsnow": 4250, "arbage": 4251, "viously": 4252, "Ġblind": 4253, "Ġexclus": 4254, "Ġsuddenly": 4255, "Ġnerf": 4256, "Ġsilly": 4257, "ĠDoesn": 4258, "Ġtag": 4259, "uh": 4260, "uy": 4261, "field": 4262, "lam": 4263, "Ġfeature": 4264, "Ġtemp": 4265, "iver": 4266, "Ġsched": 4267, "Ġshots": 4268, "Ġtraffic": 4269, "Ġcloser": 4270, "Ġspeaking": 4271, "Ġgraph": 4272, "ĠBar": 4273, "Ġdelet": 4274, "Ġwrote": 4275, "Ġped": 4276, "Ġtill": 4277, "Ġcorpor": 4278, "Ġsides": 4279, "Ġplanet": 4280, "Ġunique": 4281, "Ġwel": 4282, "ĠIsn": 4283, "Ġboyfriend": 4284, "ĠEl": 4285, "ĠPersonally": 4286, "Ġstrength": 4287, "illa": 4288, "rant": 4289, "hy": 4290, "aly": 4291, "Ġopportunity": 4292, "ĠExcept": 4293, "arter": 4294, "ĠAdd": 4295, "ĠNorth": 4296, "Ġresources": 4297, "Ġmarriage": 4298, "Ġelection": 4299, "Ġbreaking": 4300, "Ġwood": 4301, "Ġstage": 4302, "Ġbackground": 4303, "Ġwont": 4304, "Ġknock": 4305, "amb": 4306, "Ġsoftware": 4307, "Ġstanding": 4308, "usion": 4309, "Ġopinions": 4310, "Ġhyp": 4311, "ann": 4312, "BA": 4313, "uce": 4314, "Ġuns": 4315, "Ġhous": 4316, "ica": 4317, "Ġdisg": 4318, "Ġticket": 4319, "Ġtells": 4320, "aps": 4321, "Ġtiny": 4322, "ients": 4323, "Ġoffense": 4324, "Ġpub": 4325, "Ġmemory": 4326, "Ġsafety": 4327, "Ġrequires": 4328, "ĠGT": 4329, "dow": 4330, "Ġgameplay": 4331, "amm": 4332, "Ġnormally": 4333, "omen": 4334, "Ġpool": 4335, "Ġtrigg": 4336, "hetic": 4337, "ĠLit": 4338, "vere": 4339, "Ġproperty": 4340, "ios": 4341, "cious": 4342, "ĠGe": 4343, "Ġrelevant": 4344, "LY": 4345, "ĠWW": 4346, "Ġtwe": 4347, "Ġbomb": 4348, "Ġscale": 4349, "Ġmiles": 4350, "Ġpatch": 4351, "Ġvoted": 4352, "Ġsumm": 4353, "ĠAC": 4354, "Ġfreed": 4355, "oop": 4356, "Ġcares": 4357, "Ġplatform": 4358, "Ġdying": 4359, "Ġvisit": 4360, "Ġwide": 4361, "Ġstress": 4362, "ĠDO": 4363, "Ġofficial": 4364, "Ġmanager": 4365, "Ġtopic": 4366, "Ġpassed": 4367, "Ġabuse": 4368, "Ġwast": 4369, "ĠCle": 4370, "Ġplayoff": 4371, "ĠCr": 4372, "ĠUnfortunately": 4373, "Ġthousands": 4374, "ĠCor": 4375, "ĠAlthough": 4376, "men": 4377, "Ġhopefully": 4378, "Ġanx": 4379, "Ġeffic": 4380, "Ġded": 4381, "Ġpoke": 4382, "Ġencoura": 4383, "Ġfantastic": 4384, "boy": 4385, "xic": 4386, "gun": 4387, "ĠYep": 4388, "nger": 4389, "care": 4390, "Ġdevice": 4391, "Ġcomplex": 4392, "Ġprison": 4393, "pir": 4394, "Ġparticularly": 4395, "Ġvoting": 4396, "Ġcenter": 4397, "Ġaside": 4398, "Ġtons": 4399, "mao": 4400, "uments": 4401, "iant": 4402, "Ġcompare": 4403, "Ġstaff": 4404, "Ġgarbage": 4405, "Ġorigin": 4406, "Ġequal": 4407, "Ġframe": 4408, "rey": 4409, "ĠAS": 4410, "Ġclar": 4411, "ĠAf": 4412, "aud": 4413, "Ġloud": 4414, "host": 4415, "estern": 4416, "Ġenemies": 4417, "Ġheld": 4418, "sequ": 4419, "Ġsix": 4420, "Ġslowly": 4421, "Ġintellig": 4422, "isf": 4423, "ĠHi": 4424, "izza": 4425, "ĠMany": 4426, "Ġobs": 4427, "ĠHaving": 4428, "US": 4429, "arded": 4430, "Ġcircle": 4431, "Ġabsolute": 4432, "ĠSouth": 4433, "Ġdomin": 4434, "Ġmaintain": 4435, "ĠBern": 4436, "Ġowner": 4437, "ĠDidn": 4438, "Ġconcerned": 4439, "Ġ<": 4440, "Ġfalse": 4441, "Ġcow": 4442, "Ġchest": 4443, "Ġtransfer": 4444, "Ġbreed": 4445, "Ġspoil": 4446, "lin": 4447, "Ġfemin": 4448, "Ġunits": 4449, "usting": 4450, "Ġbutt": 4451, "Ġhelping": 4452, "Ġdrivers": 4453, "Ġsuccessful": 4454, "ĠPM": 4455, "Ġchicken": 4456, "Ġlazy": 4457, "Ġschools": 4458, "ĠHillary": 4459, "Ġgri": 4460, "ĠPart": 4461, "Ġthrowing": 4462, "Ġchurch": 4463, "Ġsubs": 4464, "Ġcapt": 4465, "Ġletting": 4466, "Ġmurder": 4467, "Ġservers": 4468, "Ġintroduc": 4469, "ĠTex": 4470, "Ġhilar": 4471, "Ġcustomer": 4472, "Ġunit": 4473, "Ġaccurate": 4474, "cul": 4475, "Ġcircum": 4476, "Ġinn": 4477, "ĠAnother": 4478, "Ġfailed": 4479, "Ġbenefits": 4480, "Ġhole": 4481, "Ġfish": 4482, "Ġteen": 4483, "isc": 4484, "Ġauto": 4485, "soci": 4486, "ĠOut": 4487, "Ġeverybody": 4488, "Ġcaused": 4489, "Ġdetails": 4490, "Ġmetal": 4491, "Ġbecoming": 4492, "Ġalt": 4493, "Ġcancer": 4494, "irty": 4495, "Ġisnt": 4496, "Ġjack": 4497, "Ġexec": 4498, "Ġhospital": 4499, "agine": 4500, "Ġvan": 4501, "Ġtonight": 4502, "Ġcomplaining": 4503, "ĠNope": 4504, "Ġanyways": 4505, "Ġspeech": 4506, "Ġsystems": 4507, "Ġapolog": 4508, "ĠWhite": 4509, "ĠWest": 4510, "Ġmatches": 4511, "Ġgrowing": 4512, "rating": 4513, "pre": 4514, "fuck": 4515, "game": 4516, "ĠNah": 4517, "point": 4518, "da": 4519, "Ġsuit": 4520, "aches": 4521, "Ġdistance": 4522, "Ġdress": 4523, "ressive": 4524, "epend": 4525, "Ġallows": 4526, "Ġdesigned": 4527, "Ġreference": 4528, "ĠNE": 4529, "ĠAgain": 4530, "ĠReg": 4531, "Ġpieces": 4532, "Ġathe": 4533, "Ġfeatures": 4534, "Ġhook": 4535, "Ġjail": 4536, "Ġclothes": 4537, "Ġpartner": 4538, "Ġmanaged": 4539, "Ġlau": 4540, "cel": 4541, "Ġreward": 4542, "ius": 4543, "Ġeconomy": 4544, "IG": 4545, "ief": 4546, "ription": 4547, "acing": 4548, "Ġcute": 4549, "ran": 4550, "ĠSky": 4551, "Ġshock": 4552, "kward": 4553, "Ġterror": 4554, "Ġtro": 4555, "Ġpeace": 4556, "ĠFacebook": 4557, "Ġnation": 4558, "Ġcorrectly": 4559, "Ġadjust": 4560, "Ġdeterm": 4561, "Ġviolence": 4562, "Ġyounger": 4563, "ĠMac": 4564, "AAAA": 4565, "ĠPres": 4566, "You": 4567, "oman": 4568, "hand": 4569, "Ġchecked": 4570, "Ġflash": 4571, "Ġowners": 4572, "exic": 4573, "Ġsituations": 4574, "ĠPut": 4575, "Ġgrew": 4576, "???": 4577, "Ġsubst": 4578, "Ġforeign": 4579, "ĠNY": 4580, "udes": 4581, "ĠPol": 4582, "Ġlady": 4583, "iling": 4584, "Ġguard": 4585, "Ġ500": 4586, "force": 4587, "Ġmember": 4588, "reens": 4589, "ĠSand": 4590, "Ġpurchase": 4591, "Ġhitting": 4592, "Ġturning": 4593, "ĠHard": 4594, "Ġcrowd": 4595, "haha": 4596, "ager": 4597, "Ġanimal": 4598, "Ġexpecting": 4599, "orter": 4600, "Ġfriendly": 4601, "Ġresponsible": 4602, "alk": 4603, "ĠAP": 4604, "Ġaggress": 4605, "IR": 4606, "Ġapplic": 4607, "Ġmatters": 4608, "ously": 4609, "Ġcondition": 4610, "ĠChinese": 4611, "Ġballs": 4612, "uild": 4613, "Ġdetail": 4614, "ĠUs": 4615, "Ġconvin": 4616, "90": 4617, "bre": 4618, "ĠImagine": 4619, "Ġnic": 4620, "Ġsignificant": 4621, "Ġnetwork": 4622, "Ġmath": 4623, "outs": 4624, "Ġintention": 4625, "Ġbonus": 4626, "Ġspir": 4627, "Ġcasual": 4628, "ĠThink": 4629, "Ġmir": 4630, "Ġtherap": 4631, "stood": 4632, "Ġproduction": 4633, "ov": 4634, "inst": 4635, "ĠUnited": 4636, "top": 4637, "Ġsaved": 4638, "Ġhighest": 4639, "Ġmeta": 4640, "Ġsettings": 4641, "Ġrank": 4642, "Ġdating": 4643, "ĠToo": 4644, "dr": 4645, "uk": 4646, "Ġhes": 4647, "erg": 4648, "Ġchallenge": 4649, "with": 4650, "LE": 4651, "Ġfavour": 4652, "Ġraise": 4653, "Ġtradition": 4654, "Ġfired": 4655, "Ġcup": 4656, "Ġrub": 4657, "TH": 4658, "uf": 4659, "ils": 4660, "Ġvarious": 4661, "ĠComm": 4662, "Ġdescrib": 4663, "Ġinvestig": 4664, "Ġlocation": 4665, "Ġbusy": 4666, "Ġchem": 4667, "ĠBra": 4668, "Ġachieve": 4669, "iety": 4670, "Ġexerc": 4671, "Ġhated": 4672, "la": 4673, "Ġsport": 4674, "ĠUp": 4675, "Ġfaith": 4676, "ĠMexic": 4677, "RA": 4678, "Ġentertain": 4679, "iliar": 4680, "OD": 4681, "ological": 4682, "ĠSomething": 4683, "sey": 4684, "Ġteach": 4685, "Ġcheese": 4686, "Ġiron": 4687, "Ġflav": 4688, "Ġenjoyed": 4689, "Ġstronger": 4690, "erate": 4691, "Ġestab": 4692, "ĠFire": 4693, "ĠQB": 4694, "GB": 4695, "ĠCS": 4696, "atory": 4697, "inton": 4698, "Ġsuic": 4699, "Ġexplan": 4700, "Ġadvert": 4701, "this": 4702, "lig": 4703, "Ġimplement": 4704, "Ġdiet": 4705, "Ġthus": 4706, "Ġbesides": 4707, "Ġpump": 4708, "Ġleaves": 4709, "ĠGame": 4710, "Ġtele": 4711, "ham": 4712, "Ġmillions": 4713, "ĠNA": 4714, "icing": 4715, "Ġju": 4716, "Ġspawn": 4717, "ads": 4718, "Ġincluded": 4719, "Ġ99": 4720, "Ġphoto": 4721, "Ġemployees": 4722, "ĠEverything": 4723, "Ġlying": 4724, "Ġsongs": 4725, "ights": 4726, "Ġneither": 4727, "ĠLo": 4728, "hern": 4729, "Ġhilarious": 4730, "attoo": 4731, "ĠObviously": 4732, "Ġcustomers": 4733, "Ġaccom": 4734, "Ġaccounts": 4735, "Ġdrops": 4736, "vered": 4737, "Ġwage": 4738, "Ġrelatively": 4739, "Ġbug": 4740, "Ġrain": 4741, "list": 4742, "orge": 4743, "--------": 4744, "ĠInstead": 4745, "Ġbathroom": 4746, "ivity": 4747, "Ġmotiv": 4748, "Ġpock": 4749, "Ġconnection": 4750, "Ġsmoking": 4751, "icted": 4752, "Ġdecisions": 4753, "ĠDan": 4754, "amples": 4755, "Ġdebt": 4756, "agon": 4757, "ĠPat": 4758, "mission": 4759, "ĠFun": 4760, "lebr": 4761, "Ġhide": 4762, "coin": 4763, "Ġarrest": 4764, "zz": 4765, "IP": 4766, "Ġtact": 4767, "Ġawkward": 4768, "Ġstudy": 4769, "Ġtbh": 4770, "Ġviews": 4771, "ĠMuslim": 4772, "xual": 4773, "ĠThats": 4774, "Ġpushing": 4775, "ĠSH": 4776, "EC": 4777, "Ġassoci": 4778, "Ġwing": 4779, "Ġtruck": 4780, "priate": 4781, "ĠWindows": 4782, "Ġwealth": 4783, "Ġfreedom": 4784, "Ġtransl": 4785, "Ġherself": 4786, "Ġshown": 4787, "Ġlaunch": 4788, "Ġdesk": 4789, "Ġimmig": 4790, "Ġoffensive": 4791, "Ġhelpful": 4792, "ums": 4793, "Ġpregnant": 4794, "Ġvill": 4795, "Ġunfortunately": 4796, "Ġgoals": 4797, "ĠJack": 4798, "ĠID": 4799, "Ġprotest": 4800, "Ġdump": 4801, "Ġlapt": 4802, "aning": 4803, "500": 4804, "Ġresist": 4805, "ĠHad": 4806, "Ġgiant": 4807, "Ġservices": 4808, "gging": 4809, "Ġboot": 4810, "ancy": 4811, "while": 4812, "Ġloves": 4813, "ĠTHAT": 4814, "Ġliberal": 4815, "ĠHas": 4816, "Ġhack": 4817, "Ġpolitic": 4818, "Ġbottle": 4819, "ĠKind": 4820, "arrass": 4821, "aded": 4822, "ĠAnt": 4823, "Ġaddit": 4824, "16": 4825, "Ġchoices": 4826, "Ġhol": 4827, "gly": 4828, "ĠMS": 4829, "ashed": 4830, "Ġdefinition": 4831, "Ġaccording": 4832, "ilty": 4833, "Ġcomparison": 4834, "they": 4835, "Ġexists": 4836, "Ġopponent": 4837, "cellent": 4838, "illing": 4839, "Ġupvot": 4840, "ĠRock": 4841, "icated": 4842, "Ġreceived": 4843, "Ġconfir": 4844, "Ġdisplay": 4845, "Ġapproach": 4846, "Ġgoogle": 4847, "ĠME": 4848, "ĠVal": 4849, "Ġneighbor": 4850, "Ġempty": 4851, "Ġgeneration": 4852, "rig": 4853, "Ġexperienced": 4854, "Ġmut": 4855, "Ġarms": 4856, "round": 4857, "ĠYea": 4858, "Ġrarely": 4859, "Ġclosed": 4860, "Ġflying": 4861, "Ġsac": 4862, "Ġwed": 4863, "Ġguessing": 4864, "Ġna": 4865, "ĠTime": 4866, "Ġjokes": 4867, "Ġeth": 4868, "Ġlights": 4869, "ĠNobody": 4870, "ĠMo": 4871, "Ġfactor": 4872, "ĠBernie": 4873, "Ġattitude": 4874, "endo": 4875, "Ġtreated": 4876, "Ġpunish": 4877, "Ġseat": 4878, "fr": 4879, "Ġinteract": 4880, "ighter": 4881, "enses": 4882, "Ġcorrupt": 4883, "ĠGold": 4884, "ĠDay": 4885, "Ġproud": 4886, "ĠMor": 4887, "Ġpit": 4888, "arma": 4889, "Ġspam": 4890, "Ġprint": 4891, "Ġdefensive": 4892, "ek": 4893, "Ġtournam": 4894, "Ġsetup": 4895, "Ġwa": 4896, "Ġcrack": 4897, "Ġcorner": 4898, "ruction": 4899, "Ġtast": 4900, "Ġpicking": 4901, "ban": 4902, "Ġtechnically": 4903, "Ġshape": 4904, "ĠOF": 4905, "Ġ21": 4906, "ĠGermany": 4907, "CH": 4908, "Ġhey": 4909, "ĠMag": 4910, "Ġ300": 4911, "Ġputs": 4912, "Ġsets": 4913, "Ġscient": 4914, "Ġembarrass": 4915, "Ġtattoo": 4916, "Ġbear": 4917, "ĠTell": 4918, "ortion": 4919, "urd": 4920, "Ġirre": 4921, "Ġshoes": 4922, "Ġparties": 4923, "Ġbuddy": 4924, "ĠUSA": 4925, "Ġlistening": 4926, "Ġnamed": 4927, "ĠSecond": 4928, "ĠAustralia": 4929, "Ġflaw": 4930, "Ġanybody": 4931, "ĠBen": 4932, "she": 4933, "Ġmaps": 4934, "ĠStop": 4935, "Ġthroughout": 4936, "ðŁĺ": 4937, "ara": 4938, "Ġconservative": 4939, "Ġpref": 4940, "ĠMet": 4941, "eck": 4942, "Ġscenario": 4943, "Ġstation": 4944, "ĠTwo": 4945, "izes": 4946, "tt": 4947, "ĠHit": 4948, "Ġcompetition": 4949, "Ġheroes": 4950, "Ġtips": 4951, "Ġstruct": 4952, "Ġleader": 4953, "Ġkeys": 4954, "Ġpizza": 4955, "LLY": 4956, "ĠPerhaps": 4957, "Ġphones": 4958, "ption": 4959, "ĠBre": 4960, "Ġsatisf": 4961, "Ġfights": 4962, "Ġsuspect": 4963, "Ġheads": 4964, "Ġdollar": 4965, "Ġopening": 4966, "Ġchances": 4967, "roc": 4968, "Ġtechnology": 4969, "ĠJapanese": 4970, "ĠDefinitely": 4971, "ĠALL": 4972, "Ġcombo": 4973, "Ġclim": 4974, "Ġreve": 4975, "ĠTL": 4976, "Ġcovered": 4977, "Ġtree": 4978, "DS": 4979, "inter": 4980, "Ġstatus": 4981, "Ġscary": 4982, "Ġtaught": 4983, "ĠCall": 4984, "Ġadop": 4985, "Ġfilled": 4986, "actly": 4987, "ĠClinton": 4988, "ĠTS": 4989, "Ġmobile": 4990, "Ġworkers": 4991, "Ġattractive": 4992, "ĠEast": 4993, "Ġinstance": 4994, "Ġmeme": 4995, "ĠApparently": 4996, "Ġcoach": 4997, "Ġfinan": 4998, "Ġdepart": 4999, "Ġlegs": 5000, "Ġhundreds": 5001, "Ġcelebr": 5002, "Ġ\\": 5003, "Ġsky": 5004, "ĠDLC": 5005, "Ġstrategy": 5006, "gged": 5007, "Ġneck": 5008, "Ġwalked": 5009, "ique": 5010, "ential": 5011, "Ġpromot": 5012, "Ġoptim": 5013, "Ġdealing": 5014, "ĠMad": 5015, "Ġbringing": 5016, "Ġdisappointed": 5017, "Ġplans": 5018, "ĠAmazon": 5019, "ros": 5020, "FC": 5021, "Ġspin": 5022, "MA": 5023, "Ġsteam": 5024, "ĠCont": 5025, "Ġprimary": 5026, "ĠDC": 5027, "Ġgenuinely": 5028, "ĠiPh": 5029, "iable": 5030, "ĠXbox": 5031, "ĠPoke": 5032, "ĠPar": 5033, "Ġroot": 5034, "Ġhadn": 5035, "Ġsurvive": 5036, "Ġsurprise": 5037, "Ġsection": 5038, "ĠRy": 5039, "Ġpha": 5040, "hold": 5041, "ength": 5042, "ĠHmm": 5043, "ĠChristmas": 5044, "Ġrat": 5045, "Ġedge": 5046, "Ġgrade": 5047, "Ġdinner": 5048, "ĠInterest": 5049, "ĠJew": 5050, "Ġdel": 5051, "Ġarri": 5052, "Ġmilk": 5053, "olic": 5054, "Ġgradu": 5055, "ĠBB": 5056, "Ġdemon": 5057, "ĠRemember": 5058, "iance": 5059, "Ġcomplic": 5060, "ĠShit": 5061, "Ġdebate": 5062, "Ġtight": 5063, "bert": 5064, "ĠThough": 5065, "Ġshar": 5066, "Ġcommand": 5067, "14": 5068, "Ġtall": 5069, "Ġcontain": 5070, "Ġcapable": 5071, "Ġneut": 5072, "Ġmurd": 5073, "Ġformer": 5074, "Ġinnoc": 5075, "Ġanxiety": 5076, "ĠHigh": 5077, "Ġjour": 5078, "Ġbillion": 5079, "don": 5080, "Ġsake": 5081, "aven": 5082, "iots": 5083, "Ġincredible": 5084, "acement": 5085, "Ġadmin": 5086, "vl": 5087, "ĠRob": 5088, "ĠTexas": 5089, "IM": 5090, "Ġstom": 5091, "Ġmanagement": 5092, "va": 5093, "ĠYouT": 5094, "Ġequip": 5095, "*,": 5096, "ĠPo": 5097, "iforn": 5098, "Ġchannel": 5099, "Ġmission": 5100, "Ġrif": 5101, "ket": 5102, "ĠRes": 5103, "Ġindepend": 5104, "Ġabilities": 5105, "Ġtherefore": 5106, "ĠBo": 5107, "It": 5108, "rael": 5109, "Ġguilty": 5110, "pha": 5111, "Ġpaint": 5112, "oned": 5113, "lix": 5114, "Ġextreme": 5115, "Ġquiet": 5116, "icate": 5117, "Ġmechanics": 5118, "Ġtypically": 5119, "Ġcycle": 5120, "Ġmonster": 5121, "Ġexpans": 5122, "uted": 5123, "Ġboys": 5124, "Ġanime": 5125, "Ġvast": 5126, "ĠEarth": 5127, "soft": 5128, "Ġfacts": 5129, "Ġtreatment": 5130, "ties": 5131, "Ġarmy": 5132, "Ġwow": 5133, "____": 5134, "Ġinvent": 5135, "Ġing": 5136, "ashing": 5137, "bow": 5138, "Ġlawy": 5139, "Th": 5140, "ĠDes": 5141, "Ġheavily": 5142, "Ġconstant": 5143, "Ġreven": 5144, "Ġcitizens": 5145, "ĠÂ": 5146, "Ġassist": 5147, "Ġcities": 5148, "Ġchain": 5149, "ĠAnyway": 5150, "ĠTur": 5151, "Ġpin": 5152, "Ġge": 5153, "Ġatm": 5154, "wood": 5155, "ILL": 5156, "Ġdepend": 5157, "ja": 5158, "rat": 5159, "ĠOS": 5160, "Ġwit": 5161, "Ġracism": 5162, "Ġemotional": 5163, "Ġwake": 5164, "Ġwarm": 5165, "inate": 5166, "St": 5167, "Ġconsequ": 5168, "Ġ22": 5169, "airs": 5170, "intendo": 5171, "Ġseasons": 5172, "Ġwindows": 5173, "upp": 5174, "Ġsharing": 5175, "](": 5176, "ĠWo": 5177, "Ġassault": 5178, "Ġvir": 5179, "Ġgreatest": 5180, "Ġunlock": 5181, "umps": 5182, "Ġens": 5183, "Ġfamiliar": 5184, "EM": 5185, "alty": 5186, "Ġstores": 5187, "Ġmate": 5188, "Ġchose": 5189, "Ġloot": 5190, "Ġexplanation": 5191, "pes": 5192, "ĠTor": 5193, "idden": 5194, "Ġepisodes": 5195, "Ġpotentially": 5196, "mark": 5197, "TF": 5198, "ĠNFL": 5199, "Ġlocked": 5200, "Ġcontroller": 5201, "hered": 5202, "ĠCity": 5203, "Ġbreaks": 5204, "ĠMod": 5205, "Ġwelcome": 5206, "Ġenter": 5207, "ĠEd": 5208, "Ġusual": 5209, "Ġrecall": 5210, "Ġchampions": 5211, "Ġking": 5212, "ĠCanadian": 5213, "even": 5214, "abs": 5215, "Ġdies": 5216, "Ġ45": 5217, "new": 5218, "Ġshirt": 5219, "anda": 5220, "Ġpoll": 5221, "ĠDec": 5222, "Ġje": 5223, "iam": 5224, "aying": 5225, "Ġbasis": 5226, "Ġdisp": 5227, "Ġstated": 5228, "Ġvehicle": 5229, "Ġ35": 5230, "Ġsentence": 5231, "illed": 5232, "Ġcate": 5233, "antic": 5234, "Ġsupply": 5235, "Ġrates": 5236, "ĠSan": 5237, "ĠMid": 5238, "ĠNO": 5239, "Ġmeeting": 5240, "Ġfinancial": 5241, "Ġshift": 5242, "asm": 5243, "Ġdislike": 5244, "ounced": 5245, "Ġbroad": 5246, "Ġreflect": 5247, "egr": 5248, "ĠPet": 5249, "AD": 5250, "ĠMa": 5251, "ept": 5252, "Ġtrigger": 5253, "Ġterr": 5254, "Ġcandidate": 5255, "Ġraised": 5256, "Ġ1000": 5257, "Ġdocument": 5258, "otic": 5259, "ĠSad": 5260, "Ġmac": 5261, "Ġfro": 5262, "Ġweb": 5263, "ufact": 5264, "Ġpulling": 5265, "vin": 5266, "Ġflow": 5267, "ĠMed": 5268, "Ġfool": 5269, "ĠOp": 5270, "Ġsubsc": 5271, "Ġpants": 5272, "gu": 5273, "Ġrefere": 5274, "ĠState": 5275, "inated": 5276, "Ġbac": 5277, "Ġhon": 5278, "Ġgif": 5279, "Ġplastic": 5280, "Ġunderstood": 5281, "Ġfollowed": 5282, "ĠPv": 5283, "orters": 5284, "Ġmana": 5285, "Ġclaims": 5286, "bar": 5287, "ĠTit": 5288, "ares": 5289, "ato": 5290, "Ġzone": 5291, "ĠExactly": 5292, "ĠES": 5293, "bel": 5294, "Ġdeserves": 5295, "Ġadditional": 5296, "ifornia": 5297, "nes": 5298, "ĠCheck": 5299, "Ġhung": 5300, "ĠWars": 5301, "yy": 5302, "range": 5303, "Ġoccur": 5304, "inge": 5305, "inct": 5306, "Ġappeal": 5307, "dra": 5308, "Ġlately": 5309, "Ġreceive": 5310, "ĠEVER": 5311, "Ġcos": 5312, "Ġcrying": 5313, "Don": 5314, "Ġcreating": 5315, "Ġstack": 5316, "Ġtickets": 5317, "Ġpersonality": 5318, "ĠLeague": 5319, "Ġgam": 5320, "itar": 5321, "bur": 5322, "Ġbelong": 5323, "Ġnarr": 5324, "ĠLA": 5325, "Ġscript": 5326, "Ġarc": 5327, "kn": 5328, "ĠPal": 5329, "Ġdecks": 5330, "Ġopposed": 5331, "Ġreveal": 5332, "ĠOtherwise": 5333, "rast": 5334, "Ġstandards": 5335, "Ġanswers": 5336, "Ġwheel": 5337, "Ġtesting": 5338, "Ġhardware": 5339, "lear": 5340, "ĠMight": 5341, "Ġtrump": 5342, "Ġnur": 5343, "Ġlunch": 5344, "Ġrefuse": 5345, "ĠYouTube": 5346, "Ġpic": 5347, "Ġtor": 5348, "Ġled": 5349, "ĠGive": 5350, "ĠSl": 5351, "Ġdestroyed": 5352, "Ġtoxic": 5353, "Ġsalt": 5354, "Ġroute": 5355, "ements": 5356, "ida": 5357, "Ġautomatically": 5358, "Ġugly": 5359, "Ġchecking": 5360, "ogue": 5361, "ĠRussian": 5362, "ivers": 5363, "Ġthin": 5364, "Ġoffered": 5365, "Ġdy": 5366, "ada": 5367, "Ġregularly": 5368, "ĠJe": 5369, "Ġphotos": 5370, "Ġswear": 5371, "Ġvotes": 5372, "ulate": 5373, "Ġperman": 5374, "Ġaccompl": 5375, "mates": 5376, "13": 5377, "Ġcutting": 5378, "hem": 5379, ".*": 5380, "Ġintended": 5381, "Ġindeed": 5382, "Ġpicks": 5383, "Ġdepression": 5384, "Ġjun": 5385, "Ġhype": 5386, "oty": 5387, "Ġbench": 5388, "Ġopened": 5389, "Ġtrading": 5390, "ĠAfric": 5391, "Ġinput": 5392, "Ġowned": 5393, "ilos": 5394, "Ġtv": 5395, "ĠDav": 5396, "Ġsigned": 5397, "Ġmedic": 5398, "Ġwise": 5399, "Ġaudience": 5400, "orrect": 5401, "Ġexperiences": 5402, "ĠPR": 5403, "ĠAir": 5404, "flix": 5405, "ugs": 5406, "Ġdrag": 5407, "Ġcable": 5408, "Ġplane": 5409, "Ġreplaced": 5410, "Ġcam": 5411, "Ġlaptop": 5412, "Ġleaders": 5413, "ĠDragon": 5414, "Ġtanks": 5415, "Ġordered": 5416, "TS": 5417, "ĠLeg": 5418, "ĠSn": 5419, "Ġapartment": 5420, "Ġconfl": 5421, "Ġnowhere": 5422, "Ġincom": 5423, "ĠIP": 5424, "ĠStep": 5425, "core": 5426, "ĠiPhone": 5427, "Ġsouth": 5428, "Ġliqu": 5429, "Ġreferring": 5430, "ĠPresident": 5431, "Ġuncom": 5432, "ĠSpe": 5433, "Ġshipping": 5434, "Ġsevere": 5435, "hant": 5436, "Ġaddition": 5437, "ĠRec": 5438, "Ġpassing": 5439, "phone": 5440, "Ġcream": 5441, "ĠWel": 5442, "Ġbird": 5443, "ĠSource": 5444, "Ġrestaurant": 5445, "Ġstaying": 5446, "ĠBritish": 5447, "Ġdesper": 5448, "Ġkinds": 5449, "Ġlength": 5450, "Ġbrown": 5451, "ĠCC": 5452, "Ġviable": 5453, "Ġnut": 5454, "Ġtools": 5455, "Ġtries": 5456, "ĠReal": 5457, "Ġexcellent": 5458, "Ġhob": 5459, "rier": 5460, "Ġformat": 5461, "ĠRead": 5462, "Ġdirty": 5463, "Ġeveryday": 5464, "32": 5465, "Ġexpert": 5466, "Ġbucks": 5467, "Ġdifferently": 5468, "Ġcausing": 5469, "Ġps": 5470, "Ġdecl": 5471, "Ġelectric": 5472, "ĠPokemon": 5473, "Ġfinger": 5474, "layer": 5475, "Ġfuel": 5476, "Ġgift": 5477, "ocol": 5478, "Ġresponsibility": 5479, "itut": 5480, "Ġinjury": 5481, "ille": 5482, "TC": 5483, "Ġcateg": 5484, "bb": 5485, "ĠTra": 5486, "Ġmanufact": 5487, "ĠTurn": 5488, "ĠEv": 5489, "Ġnu": 5490, "Ġdod": 5491, "olf": 5492, "dom": 5493, "Ġschedule": 5494, "eline": 5495, "ĠSC": 5496, "Ġletter": 5497, ".âĢĿ": 5498, "Ġdownvote": 5499, "ĠFall": 5500, "ĠMr": 5501, "ĠSam": 5502, "Ġemer": 5503, "craft": 5504, "ĠTrue": 5505, "Ġtun": 5506, "Ġborder": 5507, "Ġregret": 5508, "Ġcheating": 5509, "Ġpretend": 5510, "Ġsuperior": 5511, "ĠREA": 5512, "iate": 5513, "Ġweather": 5514, "nec": 5515, "Ġlmao": 5516, "ĠPL": 5517, "Ġmainly": 5518, "ĠDM": 5519, "ĠBack": 5520, "lly": 5521, "ĠYup": 5522, "ĠIsrael": 5523, "watch": 5524, "Ġbeta": 5525, "Ġamer": 5526, "Ġrude": 5527, "Ġrating": 5528, "Ġsquad": 5529, "des": 5530, "Ġreject": 5531, "eds": 5532, "Ġyout": 5533, "ĠTom": 5534, "ĠBefore": 5535, "Ġcauses": 5536, "zer": 5537, "ĠPaul": 5538, "Ġsurprising": 5539, "enc": 5540, "FA": 5541, "Ġapps": 5542, "PG": 5543, "Ġpossibility": 5544, "Ġsword": 5545, "Ġeast": 5546, "ishes": 5547, "avy": 5548, "ĠPe": 5549, "Ġrow": 5550, "ĠUse": 5551, "ĠTot": 5552, "Ġdefault": 5553, "Ġske": 5554, "Ġscreens": 5555, "Ġstruggle": 5556, "cons": 5557, "Ġconfirmed": 5558, "hard": 5559, "ĠFrench": 5560, "Ġrom": 5561, "hers": 5562, "Ġcalories": 5563, "Ġelement": 5564, "abor": 5565, "pm": 5566, "Ġnuts": 5567, "ĠJim": 5568, "ĠThing": 5569, "ĠBel": 5570, "Ġboat": 5571, "word": 5572, "wing": 5573, "ĠTer": 5574, "Ġproduce": 5575, "Ġinfluence": 5576, "%.": 5577, "Ġclient": 5578, "Ġmanip": 5579, "Ġsuicide": 5580, "Ġequival": 5581, "ĠSil": 5582, "Ġhistor": 5583, "Ġsurround": 5584, "Ġspr": 5585, "Ġsupporting": 5586, "ĠNaz": 5587, "Ġjustify": 5588, "ki": 5589, "Ġsen": 5590, "Ġtap": 5591, "Ġdise": 5592, "ĠJon": 5593, "ady": 5594, "Ġeggs": 5595, "ĠCalifornia": 5596, "Ġconsistent": 5597, "Ġdial": 5598, "whel": 5599, "ĠFucking": 5600, "Ġsoul": 5601, "Ġwinter": 5602, "ho": 5603, "ĠStart": 5604, "Ġinsult": 5605, "ĠNintendo": 5606, "Ġbadly": 5607, "Ġruin": 5608, "Ġcareful": 5609, "Ġconvinced": 5610, "ĠCome": 5611, "Ġalot": 5612, "Ġwhose": 5613, "lands": 5614, "Ġinstantly": 5615, "Ġparticip": 5616, "Ġmistakes": 5617, "ĠSteam": 5618, "ĠAR": 5619, "Ġ2016": 5620, "Ġbtw": 5621, "Ġretarded": 5622, "Ġ!": 5623, "iped": 5624, "HH": 5625, "Ġdepth": 5626, "ado": 5627, "utch": 5628, "overed": 5629, "Ġclassic": 5630, "Ġexpand": 5631, "OOOO": 5632, "Ġnoise": 5633, "ĠNext": 5634, "Ġphysically": 5635, "Ġcondit": 5636, "Ġshall": 5637, "Ġhardly": 5638, "Ġath": 5639, "Ġplant": 5640, "uming": 5641, "Ġsacr": 5642, "ressing": 5643, "igs": 5644, "Ġsurger": 5645, "ĠTim": 5646, "Ġdragon": 5647, "ĠHouse": 5648, "Ġfellow": 5649, "Ġlan": 5650, "Ġder": 5651, "Ġthreads": 5652, "str": 5653, "Ġdownvotes": 5654, "urb": 5655, "ĠGreen": 5656, "Ġcock": 5657, "ona": 5658, "chen": 5659, "Ġfold": 5660, "Ġpowers": 5661, "ulk": 5662, "Ġplayoffs": 5663, "ĠAI": 5664, "Ġhorse": 5665, "ula": 5666, "fit": 5667, "18": 5668, "Ġsch": 5669, "Ġquote": 5670, "part": 5671, "Ġrum": 5672, "ĠEm": 5673, "Ġignorant": 5674, "Ġfort": 5675, "cend": 5676, "Ġassumed": 5677, "Ġmal": 5678, "Ġshower": 5679, "ĠSol": 5680, "ĠLOL": 5681, "net": 5682, "ĠIslam": 5683, "Ġmotor": 5684, "Ġlisted": 5685, "ĠHP": 5686, "Ġproven": 5687, "Ġranked": 5688, "Ġdisgusting": 5689, "Ġsne": 5690, "Ġpokemon": 5691, "lished": 5692, "Ġbright": 5693, "has": 5694, "Ġlicense": 5695, "Ġbrings": 5696, "uclear": 5697, "Ġdescribe": 5698, "Ġexchange": 5699, "ĠIdk": 5700, "ĠCPU": 5701, "ĠAbs": 5702, "Ġmicro": 5703, "Ġcriminal": 5704, "Ġfranch": 5705, "Ġemployee": 5706, "Ġleads": 5707, "cient": 5708, "Ġmouse": 5709, "Ġtrend": 5710, "ception": 5711, "ĠIntern": 5712, "Ġsugar": 5713, "rage": 5714, "Ġtoler": 5715, "Ġfrustrating": 5716, "ĠRepublicans": 5717, "Ġentit": 5718, "Ġjustice": 5719, "Ġstands": 5720, "Ġships": 5721, "Ġrepublic": 5722, "ĠHD": 5723, "Ġcats": 5724, "itution": 5725, "Ġparking": 5726, "Ġrelationships": 5727, "Ġidiots": 5728, "esh": 5729, "inder": 5730, "Ġassholes": 5731, "FF": 5732, "Ġunivers": 5733, "Ġpod": 5734, "Ġconsistently": 5735, "Ġfantasy": 5736, "ĠSP": 5737, "Ġequipment": 5738, "Ġexamples": 5739, "Ġlibr": 5740, "orce": 5741, "Ġconclus": 5742, "ours": 5743, "Ġhall": 5744, "Ġfederal": 5745, "Ġregion": 5746, "Ġrush": 5747, "Ġflight": 5748, "Ġprofile": 5749, "Ġbirthday": 5750, "agger": 5751, "Ġsites": 5752, "rome": 5753, "Ġbod": 5754, "Ġconfident": 5755, "Ġpc": 5756, "Ġhire": 5757, "who": 5758, "Ġzomb": 5759, "ĠTHIS": 5760, "olve": 5761, "Ġpushed": 5762, "Ġgraphics": 5763, "Ġexistence": 5764, "Ġbeliefs": 5765, "ĠUlt": 5766, "ĠDS": 5767, "Ġpil": 5768, "Ġwonderful": 5769, "ĠHy": 5770, "Ġlabel": 5771, "Ġpill": 5772, "Ġknife": 5773, "Ġinnocent": 5774, "Ġdeveloped": 5775, "Ġpattern": 5776, "Ġalternative": 5777, "Ġintent": 5778, "Ġcollection": 5779, "Ġthrew": 5780, "Ġappropriate": 5781, "Ġfeedback": 5782, "ĠSur": 5783, "ago": 5784, "Ġimpressive": 5785, "Ġthrown": 5786, "Ġeconomic": 5787, "Ġprec": 5788, "fire": 5789, "ĠIron": 5790, "Ġvalues": 5791, "Ġmixed": 5792, "Ġdefe": 5793, "Ġholy": 5794, "ĠPort": 5795, "erk": 5796, "IV": 5797, "Ġfee": 5798, "Ġmail": 5799, "ester": 5800, "Ġwest": 5801, "angers": 5802, "ĠSk": 5803, "Ġteaching": 5804, "uable": 5805, "ĠSub": 5806, "inity": 5807, "Ġain": 5808, "ests": 5809, "ram": 5810, "Ġappears": 5811, "Ġdecade": 5812, "Ġathlet": 5813, "Ġcalcul": 5814, "',": 5815, "uary": 5816, "olt": 5817, "Ġmeal": 5818, "Ġsolve": 5819, "!)": 5820, "Ġlag": 5821, "Ġexplained": 5822, "Ġuncomfortable": 5823, "Ġregarding": 5824, "Ġmort": 5825, "Ġinitial": 5826, "onn": 5827, "Ġâ": 5828, "opp": 5829, "Ġpocket": 5830, "Ġincreased": 5831, "ĠCL": 5832, "Ġadvance": 5833, "Ġgoo": 5834, "uries": 5835, "Ġacce": 5836, "Ġmodels": 5837, "ĠBit": 5838, "Ġdecades": 5839, "ĠFB": 5840, "Ġfasc": 5841, "Ġkicked": 5842, "ĠÂ£": 5843, "Ġuniversity": 5844, "75": 5845, "ĠSou": 5846, "Ġlegitimate": 5847, "Ġkarma": 5848, "tain": 5849, "ĠLife": 5850, "Ġintegr": 5851, "Ġguarantee": 5852, "Ġrestrict": 5853, "Ġprograms": 5854, "Ġic": 5855, "Ġcommer": 5856, ")?": 5857, "ĠEngland": 5858, "iper": 5859, "inary": 5860, "Ġloose": 5861, "Ġvolume": 5862, "Ġsilver": 5863, "ĠInteresting": 5864, "ĠStates": 5865, "Ġpal": 5866, "Ġstere": 5867, "Ġalright": 5868, "ĠMicro": 5869, "mart": 5870, "Ġcrew": 5871, "Ġfiles": 5872, "aaaa": 5873, "Ġconditions": 5874, "Ġhates": 5875, "Ġdunno": 5876, "Ġbound": 5877, "Ġsear": 5878, "Ġreduce": 5879, "Ġpra": 5880, "Ġcolors": 5881, "Ġgross": 5882, "vest": 5883, "Ġfailure": 5884, "izzard": 5885, "Ġpackage": 5886, "Ġlaun": 5887, "Ġwedding": 5888, "ĠAL": 5889, "Ġfalling": 5890, "hael": 5891, "Ġwire": 5892, "Ġspect": 5893, "Ġfocused": 5894, "Ġdip": 5895, "Ġmonitor": 5896, "uty": 5897, "Ġofficer": 5898, "vey": 5899, "uzz": 5900, "35": 5901, "ĠLight": 5902, "uman": 5903, "athy": 5904, "Ġunlikely": 5905, "Ġserve": 5906, "Ġerror": 5907, "ĠDead": 5908, "iders": 5909, "Ġbeating": 5910, "Ġpacks": 5911, "ba": 5912, "In": 5913, "Ġsmooth": 5914, "EEEE": 5915, "ĠLuck": 5916, "Ġsupporters": 5917, "Ġstun": 5918, "ĠML": 5919, "Ġvirt": 5920, "Ġhealthcare": 5921, "Ġbored": 5922, "Ġspirit": 5923, "base": 5924, "Ġgreater": 5925, "Ġeffectively": 5926, "ĠDown": 5927, "good": 5928, "ĠBrown": 5929, "Ġlaug": 5930, "mber": 5931, "rior": 5932, "Ġwrest": 5933, "Ġthick": 5934, "iber": 5935, "Ġcomed": 5936, "Ġhanging": 5937, "Ġupdates": 5938, "Ġbutter": 5939, "ander": 5940, "Ġchap": 5941, "Ġminority": 5942, "ĠLuc": 5943, "ĠHapp": 5944, "house": 5945, "ĠAndroid": 5946, "ene": 5947, "Ġdat": 5948, "may": 5949, "Ġpassive": 5950, "ĠBill": 5951, "Ġhealing": 5952, "Ġram": 5953, "Ġstars": 5954, "Ġteeth": 5955, "Ġgodd": 5956, "pop": 5957, "Ġactively": 5958, "Ġplate": 5959, "Ġpoorly": 5960, "Ġcontr": 5961, "ĠMal": 5962, "ulated": 5963, "Ġhurts": 5964, "Ġsignificantly": 5965, "Ġradio": 5966, "Ġkeyboard": 5967, "Ġcomfort": 5968, "aken": 5969, "ww": 5970, "ints": 5971, "Ġdelay": 5972, "Ġbrows": 5973, "Oh": 5974, "Ġsole": 5975, "necess": 5976, "RS": 5977, "Ġsending": 5978, "Ġbasket": 5979, "Ġast": 5980, "Ġwarning": 5981, "Ġpunch": 5982, "Ġcircumst": 5983, "ĠDest": 5984, "Ġack": 5985, "ĠMO": 5986, "Ġexercise": 5987, "Ġaggressive": 5988, "Ġwet": 5989, "see": 5990, "Ġcig": 5991, "ora": 5992, "Ġreviews": 5993, "ĠComp": 5994, "Ġtypical": 5995, "Ġclue": 5996, "ria": 5997, "Ġflip": 5998, "Ġyellow": 5999, "Ġsequ": 6000, "Ġaccepted": 6001, "ocking": 6002, "Ġbars": 6003, "ĠAcc": 6004, "Ġviolent": 6005, "Ġnons": 6006, "ĠBattle": 6007, "ĠFriday": 6008, "Ġdiss": 6009, "stal": 6010, "ilies": 6011, "Ġleading": 6012, "If": 6013, "ĠSun": 6014, "NG": 6015, "Ġtwist": 6016, "stone": 6017, "Ġ)": 6018, "Ġmini": 6019, "Ġequivalent": 6020, "Ġdropping": 6021, "Ġaudio": 6022, "Ġconven": 6023, "lers": 6024, "geon": 6025, "herent": 6026, "Ġhip": 6027, "Ġexpansion": 6028, "Ġstorm": 6029, "abled": 6030, "Ġmarketing": 6031, "Ġbugs": 6032, "Ġprob": 6033, "Ġmoral": 6034, "ĠSund": 6035, "Ġacknow": 6036, "Ġartist": 6037, "Ġcraft": 6038, "ĠMark": 6039, "run": 6040, "asty": 6041, "Ġsigns": 6042, "Ġphr": 6043, "VP": 6044, "Ġmoments": 6045, "elling": 6046, "Ġsees": 6047, "uge": 6048, "ĠRepublican": 6049, "Ġsin": 6050, "vis": 6051, "levant": 6052, "ĠBad": 6053, "Ġprotection": 6054, "ashion": 6055, "Ġ->": 6056, "Ġinvestment": 6057, "Ġtoile": 6058, "Ġwave": 6059, "ĠUsually": 6060, "Ġtea": 6061, "Ġtemper": 6062, "Ġpredict": 6063, "eless": 6064, "ĠBetter": 6065, "ĠFrank": 6066, "Ġidk": 6067, "incip": 6068, "rog": 6069, "Ġ75": 6070, "Ġmanual": 6071, "Ġcharges": 6072, "Ġgrowth": 6073, "Ġflu": 6074, "ulting": 6075, "Ġfet": 6076, "Ġcrash": 6077, "Ġgar": 6078, "Ġconvince": 6079, "post": 6080, "Ġstops": 6081, "Ġescape": 6082, "ĠDeath": 6083, "ĠIV": 6084, "Ġdouche": 6085, "Ġadds": 6086, "Ġmoon": 6087, "ĠSU": 6088, "ĠBay": 6089, "uster": 6090, "Ġprime": 6091, "Ġblast": 6092, "star": 6093, "Ġfits": 6094, "Ġreset": 6095, "Ġsteps": 6096, "Ġdim": 6097, "Ġsleeping": 6098, "Ġsuggestions": 6099, "Ġallowing": 6100, "Ġstrike": 6101, "idents": 6102, "rely": 6103, "Ġsalary": 6104, "........": 6105, "win": 6106, "Ġnose": 6107, "AP": 6108, "ĠGM": 6109, "Ġdelic": 6110, "essed": 6111, "ĠAwesome": 6112, "Ġcriticism": 6113, "ĠAlways": 6114, "Ġcab": 6115, "ĠMer": 6116, "ĠCool": 6117, "Ġdrama": 6118, "Ġfirm": 6119, "Ġattacking": 6120, "Ġpenis": 6121, "fe": 6122, "ĠDN": 6123, "Ġlvl": 6124, "Ġsurgery": 6125, "Ġpointed": 6126, "Ġcreepy": 6127, "Ġideal": 6128, "Ġharass": 6129, "ĠAc": 6130, "Ġarguments": 6131, "oses": 6132, "akers": 6133, "Ġabsurd": 6134, "ounter": 6135, "ded": 6136, "non": 6137, "Ġphilos": 6138, "weight": 6139, "ĠIll": 6140, "Ġcake": 6141, "ĠCent": 6142, "Ġacceptable": 6143, "Ġ@": 6144, "ĠOff": 6145, "Ġgrown": 6146, "Ġpositions": 6147, "Ġstab": 6148, "Ġpa": 6149, "Ġmeasure": 6150, "fast": 6151, "Ġbatt": 6152, "pass": 6153, "Ġforces": 6154, "Ġpointing": 6155, "Ġ31": 6156, "Ġ_": 6157, "rie": 6158, "Ġsurface": 6159, "Ġcomplicated": 6160, "Ġcheat": 6161, "Ġbelief": 6162, "ĠHun": 6163, "Ġplain": 6164, "reet": 6165, "resh": 6166, "Ġdepartment": 6167, "Ġcharged": 6168, "anta": 6169, "KE": 6170, "Ġefficient": 6171, "iculty": 6172, "Ġmelee": 6173, "Ġstone": 6174, ":**": 6175, "Ġrepeat": 6176, "ĠPark": 6177, "Ġamb": 6178, "Ġfavourite": 6179, "Ġveget": 6180, "Ġamounts": 6181, "ĠWouldn": 6182, "Ġyoutube": 6183, "ĠWR": 6184, "ĠMart": 6185, "Ġbalanced": 6186, "sen": 6187, "Ġplug": 6188, "cles": 6189, "Ġfingers": 6190, "Ġdrives": 6191, "Ġbread": 6192, "anish": 6193, "Ġmaxim": 6194, "Ġfamilies": 6195, "Ġ23": 6196, "uding": 6197, "kers": 6198, "ĠMat": 6199, "ita": 6200, "yl": 6201, "ĠAnything": 6202, "Ġinternational": 6203, "rough": 6204, "Ġcritical": 6205, "Ġdeals": 6206, "Ġoffers": 6207, "ĠCap": 6208, "some": 6209, "ĠYork": 6210, "acle": 6211, "Ġcalm": 6212, "ĠBE": 6213, "Ġoriginally": 6214, "Ġlaughing": 6215, "Ġidentity": 6216, "ĠBlue": 6217, "bi": 6218, "Ġ26": 6219, "Ġpercentage": 6220, "ĠAbsolut": 6221, "ribly": 6222, "onic": 6223, "ushed": 6224, "ealous": 6225, "Ġdudes": 6226, "Ġstrict": 6227, "Ġruined": 6228, "Ġsup": 6229, "Ġdesire": 6230, "Ġrelax": 6231, "Ġbang": 6232, "bble": 6233, "Ġtrained": 6234, "war": 6235, "mar": 6236, "adem": 6237, "ĠKorea": 6238, "ĠAB": 6239, "hal": 6240, "Ġvariety": 6241, "irl": 6242, "Ġchampion": 6243, "Ġfle": 6244, "utor": 6245, "Ġrecognize": 6246, "ĠGetting": 6247, "acc": 6248, "Ġinterests": 6249, "Ġspells": 6250, "Ġboxes": 6251, "Ġtraditional": 6252, "Ġtalks": 6253, "Ġconsequences": 6254, "Ġglobal": 6255, "Ġelim": 6256, "Ġfees": 6257, "ĠNone": 6258, "Ġorg": 6259, "Ġ:-": 6260, "Ġbuilds": 6261, "Ġconnected": 6262, "Ġflair": 6263, "Ġmedium": 6264, "Ġera": 6265, "Ġrealistic": 6266, "Ġimpression": 6267, "Ġrig": 6268, "Ġdistract": 6269, "pool": 6270, "ĠDemocrats": 6271, "Ġpir": 6272, "ĠRun": 6273, "Ġsuffer": 6274, "Ġnovel": 6275, "fall": 6276, "ername": 6277, "usive": 6278, "ockey": 6279, "rain": 6280, "ĠMil": 6281, "itation": 6282, "acity": 6283, "ĠARE": 6284, "Ġpee": 6285, "Ġdoctors": 6286, "ĠNetflix": 6287, "ĠMakes": 6288, "ĠMY": 6289, "Ġsight": 6290, "No": 6291, "Ġunfair": 6292, "ĠMichael": 6293, "HAHA": 6294, "Ġrecru": 6295, "Ġphase": 6296, "orida": 6297, "Ġaccidentally": 6298, "icious": 6299, "ji": 6300, "Ġshiny": 6301, "Ġvaluable": 6302, "gency": 6303, "Ġslot": 6304, "Ġbuck": 6305, "ĠOld": 6306, "ancing": 6307, "Ġtournament": 6308, "born": 6309, "Ġclos": 6310, "Ġadults": 6311, "ĠEuropean": 6312, "ĠUnder": 6313, "Ġcommercial": 6314, "Ġkiss": 6315, "ĠLots": 6316, "Ġrage": 6317, "Ġwarrant": 6318, "Ġquarter": 6319, "ĠBS": 6320, "ĠBur": 6321, "Ġdistrib": 6322, "ĠYet": 6323, "ĠLooking": 6324, "Ġprincip": 6325, "Ġenjoying": 6326, "ache": 6327, "ĠColl": 6328, "allow": 6329, "Ġrewards": 6330, "](/": 6331, "Ġtheme": 6332, "ĠFox": 6333, "ushing": 6334, "Ġdifficulty": 6335, "Ġdiagn": 6336, "ĠGlad": 6337, "Ġsources": 6338, "Ġcert": 6339, "Ġheight": 6340, "Ġdevs": 6341, "300": 6342, "Ġnuclear": 6343, "Ġwtf": 6344, "Ġwash": 6345, "Ġdefending": 6346, "retch": 6347, "Ġ150": 6348, "Ġmile": 6349, "inger": 6350, "Ġstable": 6351, "Ġcoo": 6352, "Ġtone": 6353, "ĠWithout": 6354, "ĠBatman": 6355, "ĠFOR": 6356, "piracy": 6357, "Ġcoins": 6358, "Ġpron": 6359, "etic": 6360, "Ġsla": 6361, "Ġfranchise": 6362, "Ġorganization": 6363, "ura": 6364, "ĠCH": 6365, "Ġghost": 6366, "Ġcous": 6367, "usted": 6368, "Ġunnecess": 6369, "ĠUnt": 6370, "Ġteachers": 6371, "xy": 6372, "Ġtests": 6373, "ĠWhe": 6374, "Ġfrequently": 6375, "Ġpics": 6376, "orable": 6377, "Ġtrailer": 6378, "ĠHalf": 6379, "Ġinstant": 6380, "ĠTech": 6381, "17": 6382, "Ġagreed": 6383, "Ġwars": 6384, "ĠGO": 6385, "Ġconfidence": 6386, "Ġads": 6387, "ĠAlex": 6388, "hile": 6389, "PC": 6390, "ĠSM": 6391, "ĠHE": 6392, "Ġshell": 6393, "Ġcomic": 6394, "Ġconflict": 6395, "Ġstayed": 6396, "ĠChan": 6397, "Ġriding": 6398, "Ġscreaming": 6399, "Ġchrist": 6400, "Ġincreasing": 6401, "stream": 6402, "Ġcoin": 6403, "Ġprepared": 6404, "free": 6405, "istics": 6406, "ĠBF": 6407, "Ġbelt": 6408, "udd": 6409, "Ġlegally": 6410, "Ġforg": 6411, "Ġarguing": 6412, "Ġtrial": 6413, "Ġmenu": 6414, "only": 6415, "Ġlabor": 6416, "Ġbast": 6417, "Ġpatient": 6418, "Ġnotes": 6419, "19": 6420, "ĠMC": 6421, "Ġblank": 6422, "Ġsettle": 6423, "Ġswing": 6424, "ĠEnd": 6425, "ĠWay": 6426, "Ġpointless": 6427, "Ġdiscount": 6428, "ĠSanders": 6429, "Ġ400": 6430, "Ġsupports": 6431, "Ġexisting": 6432, "Ġdevices": 6433, "ĠIndian": 6434, "Ġplanned": 6435, "ĠEver": 6436, "ĠTri": 6437, "ĠAgreed": 6438, "Ġups": 6439, "Ġfundament": 6440, "alax": 6441, "Ġpuss": 6442, "olly": 6443, "ĠLO": 6444, "Ġmuscle": 6445, "Ġtear": 6446, "ĠGuess": 6447, "aling": 6448, "Ġspecies": 6449, "Ġpoliticians": 6450, "ĠMiss": 6451, "Ġinsp": 6452, "SS": 6453, "Ġlies": 6454, "Ġate": 6455, "ustain": 6456, "Ġelsewhere": 6457, "Ġnaturally": 6458, "uous": 6459, "orage": 6460, "Ġbeast": 6461, "ĠAbout": 6462, "Ġretail": 6463, "Ġpounds": 6464, "Ġunable": 6465, "RR": 6466, "LD": 6467, "ĠEVERY": 6468, "Ġlin": 6469, "ĠFrance": 6470, "ĠMicrosoft": 6471, "vy": 6472, "icial": 6473, "ĠUni": 6474, "45": 6475, "Ġcompete": 6476, "ĠIr": 6477, "ĠArt": 6478, "Ġvision": 6479, "ĠQue": 6480, "ston": 6481, "lines": 6482, "Ġmast": 6483, "Ġwalls": 6484, "shot": 6485, "ĠMine": 6486, "Ġdust": 6487, "bon": 6488, "ĠBall": 6489, "Ġlawyer": 6490, "Ġpray": 6491, "ternal": 6492, "Ġdifferences": 6493, "Ġexperiment": 6494, "ĠLong": 6495, "ĠSch": 6496, "Ġrolling": 6497, "Ġnorth": 6498, "apped": 6499, "rants": 6500, "Ġloan": 6501, "Ġfilter": 6502, "ĠTR": 6503, "Ġtransition": 6504, "olved": 6505, "Ġplaced": 6506, "Ġpolicies": 6507, "Ġfreaking": 6508, "Ġ28": 6509, "Ġrise": 6510, "Ġscrewed": 6511, "Ġdoub": 6512, "Ġportion": 6513, "Ġwhoever": 6514, "ĠFF": 6515, "Ġguaranteed": 6516, "Ġmeas": 6517, "hot": 6518, "Ġbrut": 6519, "Ġunre": 6520, "Ġcoast": 6521, "Ġsym": 6522, "ĠCB": 6523, "What": 6524, "nal": 6525, "Ġmissions": 6526, "Ġvoc": 6527, "ĠJan": 6528, "istration": 6529, "Ġdedicated": 6530, "Ġreported": 6531, "Ġtoilet": 6532, "Ġscenes": 6533, "rum": 6534, "Ġbri": 6535, "Ġtoward": 6536, "vable": 6537, "Ġca": 6538, "Ġneighb": 6539, "Ġsymb": 6540, "coming": 6541, "Ġbabies": 6542, "nn": 6543, "ĠInf": 6544, "Ġsemi": 6545, "Ġmachines": 6546, "Ġstereoty": 6547, "Ġ32": 6548, "Ġdevelopers": 6549, "Ġextent": 6550, "yes": 6551, "...\"": 6552, "there": 6553, "ulations": 6554, "Ġnarrative": 6555, "ashes": 6556, "Ġmyth": 6557, "inating": 6558, "ĠMario": 6559, "jo": 6560, "ĠDa": 6561, "ĠMA": 6562, "ĠTop": 6563, "Ġmessages": 6564, "za": 6565, "Ġbills": 6566, "ĠAsian": 6567, "Ġpromise": 6568, "ingly": 6569, "Ġupdated": 6570, "ĠMcC": 6571, "Ġadvoc": 6572, "ĠâĢĺ": 6573, "Ġgap": 6574, "inite": 6575, "icago": 6576, "Ġirrelevant": 6577, "Ġadm": 6578, "Ġspots": 6579, "ĠDen": 6580, "urt": 6581, "Ġfalls": 6582, "UST": 6583, "ĠGoing": 6584, "Ġstretch": 6585, "Ġtort": 6586, "bro": 6587, "Ġloving": 6588, "igan": 6589, "ĠWatch": 6590, "Ġgang": 6591, "icy": 6592, "asp": 6593, "ĠZe": 6594, "aturday": 6595, "Ġroster": 6596, "ormal": 6597, "Ġacts": 6598, "Ġfashion": 6599, "overy": 6600, "Ġcod": 6601, "Ġbullet": 6602, "Ġskip": 6603, "Ġstopping": 6604, "Ġupvote": 6605, "Ġnonsense": 6606, "PN": 6607, "ĠEmp": 6608, "Ġconfusing": 6609, "Ġswim": 6610, "Ġammo": 6611, "ĠFA": 6612, "Ġhidden": 6613, "ĠVeg": 6614, "Ġorders": 6615, "Ġourselves": 6616, "Ġengage": 6617, "ĠBlood": 6618, "ĠSunday": 6619, "ysis": 6620, "rol": 6621, "Ġrepeated": 6622, "Ġneighborhood": 6623, "TA": 6624, "Ġroutine": 6625, "Ġactivity": 6626, "uto": 6627, "Ġphilosoph": 6628, "Ġdrinks": 6629, "Ġdiam": 6630, "istically": 6631, "ocks": 6632, "Ġ2000": 6633, "Ġreput": 6634, "iat": 6635, "Ġjealous": 6636, "Ġdescribed": 6637, "Ġpoison": 6638, "Ġupper": 6639, "Ġwallet": 6640, "Ġtitles": 6641, "IA": 6642, "Ġclock": 6643, "Ġawhile": 6644, "ĠPower": 6645, "Ġsan": 6646, "Ġbreath": 6647, "aus": 6648, "ĠTod": 6649, "ubs": 6650, "Ġdegrees": 6651, "Ġdelete": 6652, "Ġfreak": 6653, "Ġasks": 6654, "Ġblocks": 6655, "Ġenforce": 6656, "Ġequally": 6657, "Ġversions": 6658, "Ġfarming": 6659, "ĠSA": 6660, "Ġsuffering": 6661, "Ġsandw": 6662, "22": 6663, "ĠCat": 6664, "ĠAlmost": 6665, "uana": 6666, "Ġwhats": 6667, "ondon": 6668, "We": 6669, "pret": 6670, "umer": 6671, "ican": 6672, "Ġbowl": 6673, "atholic": 6674, "ville": 6675, "Ġkitchen": 6676, "bet": 6677, "Ġtrees": 6678, "Ġentitled": 6679, "Ġburst": 6680, "ĠRegard": 6681, "ags": 6682, "Ġfilms": 6683, "Ġhomeless": 6684, "rency": 6685, "Ġupload": 6686, "Ġoccasionally": 6687, "Ġgig": 6688, "GA": 6689, "ĠJames": 6690, "Ġincent": 6691, "sha": 6692, "Ġultimately": 6693, "ĠVR": 6694, "hib": 6695, "Ġorange": 6696, "Ġpassion": 6697, "Ġflex": 6698, "Ġaband": 6699, "Ġskins": 6700, "ĠKo": 6701, "ĠEX": 6702, "Ġtransport": 6703, "Ġapplied": 6704, "ader": 6705, "ION": 6706, "rr": 6707, "Ġneutral": 6708, ".**": 6709, "Ġreplacement": 6710, "ĠCD": 6711, "ĠJoe": 6712, "Ġscam": 6713, "Ġencourage": 6714, "ĠPay": 6715, "Ġtab": 6716, "Ġrounds": 6717, "Ġchair": 6718, "Ġtested": 6719, "Ġnightm": 6720, "Ġbags": 6721, "ĠMax": 6722, "Ġfamous": 6723, "ava": 6724, "Ġtied": 6725, "ĠNight": 6726, "Ġtape": 6727, "Ġdigital": 6728, "ĠGPU": 6729, "Ġlaid": 6730, "Ġthousand": 6731, "ĠÌ": 6732, "Ġvoters": 6733, "Ġassign": 6734, "Ġtie": 6735, "ĠNor": 6736, "Ġprovided": 6737, "ĠANY": 6738, "ownt": 6739, "ye": 6740, "aint": 6741, "Ġhyper": 6742, "Ġacqu": 6743, "ko": 6744, "ya": 6745, "Ġsmile": 6746, "Ġroughly": 6747, "Ġretire": 6748, "Ġdur": 6749, "ĠHitler": 6750, "onday": 6751, "Ġwestern": 6752, "Ġtechnical": 6753, "EO": 6754, "Ġangle": 6755, "onder": 6756, "los": 6757, "Ġchill": 6758, "ĠFlorida": 6759, "ĠNBA": 6760, "Ġannounce": 6761, "ĠLiterally": 6762, "Ġexclusive": 6763, "related": 6764, "ĠAbsolutely": 6765, "Ġcombined": 6766, "Ġoffended": 6767, "ONE": 6768, "Ġjuice": 6769, "Ġstruggling": 6770, "Ġcloud": 6771, "ĠFinally": 6772, "ĠUntil": 6773, "Ġcooking": 6774, "Ġsuggested": 6775, "Ġ2015": 6776, "iation": 6777, "rian": 6778, "Ġflavor": 6779, "Ġadvent": 6780, "Ġnom": 6781, "because": 6782, "ĠLord": 6783, "riors": 6784, "UU": 6785, "ĠRE": 6786, "Ġindic": 6787, "Ġexplos": 6788, "Ġinstalled": 6789, "ĠAlright": 6790, "rid": 6791, "Ġfucks": 6792, "Ġhumor": 6793, "look": 6794, "Ġhouses": 6795, "ĠUN": 6796, "Ġtheres": 6797, "Ġsyn": 6798, "Ġusername": 6799, "Ġshared": 6800, "ĠLin": 6801, "Ġbothered": 6802, "GE": 6803, "ini": 6804, "Ġsect": 6805, "ĠIM": 6806, "Ġ1080": 6807, "Ġstructure": 6808, "lor": 6809, "Ġexha": 6810, "iqu": 6811, "Ġsuggestion": 6812, "Ġtherapy": 6813, "Ġexception": 6814, "Ġscan": 6815, "ĠKn": 6816, "life": 6817, "ĠCra": 6818, "Ġworlds": 6819, "Ġhypocr": 6820, "eration": 6821, "Ġrifle": 6822, "Ġclarify": 6823, "Ġcommitted": 6824, "Ġshif": 6825, "ĠDi": 6826, "pting": 6827, "irts": 6828, "Ġrational": 6829, "Ġindividuals": 6830, "gins": 6831, "year": 6832, "pa": 6833, "hr": 6834, "ste": 6835, "Ġmand": 6836, "Ġfunct": 6837, "phones": 6838, "Ġq": 6839, "ĠIve": 6840, "Ġdivision": 6841, "HT": 6842, "Ġbum": 6843, "loc": 6844, "ĠJer": 6845, "Ġvend": 6846, "Ġmulti": 6847, "Ġsarc": 6848, "apping": 6849, "Ġtower": 6850, "rats": 6851, "Ġelite": 6852, "Ġtoss": 6853, "Donald": 6854, "Ġthumb": 6855, "Ġreminds": 6856, "Ġoffering": 6857, "Ġdict": 6858, "PP": 6859, "rets": 6860, "Ġloses": 6861, "ĠII": 6862, "Ġpropag": 6863, "Ġoverwhel": 6864, "ĠMen": 6865, "Ġcoverage": 6866, "Ġsteel": 6867, "apers": 6868, "ERE": 6869, "ĠNC": 6870, "ĠDisney": 6871, "Ġjumping": 6872, "Ġproceed": 6873, "vity": 6874, "Ġhanded": 6875, "Ġafterwards": 6876, "Ġraw": 6877, "Ġguide": 6878, "ĠRel": 6879, "wr": 6880, "Ġlas": 6881, "Ġsympt": 6882, "leg": 6883, "Ġdish": 6884, "Ġbias": 6885, "Ġhunting": 6886, "ĠInternet": 6887, "iled": 6888, "SE": 6889, "Ġvisual": 6890, "Ġbodies": 6891, "every": 6892, "Ġkiller": 6893, "Ġsymp": 6894, "ĠSen": 6895, "Ġlegendary": 6896, "Ġlatest": 6897, "Ġcombination": 6898, "Ġcuts": 6899, "Ġprojects": 6900, "Ġax": 6901, "ĠMM": 6902, "ĠÃ": 6903, "afe": 6904, "Ġreliable": 6905, "Ġimproved": 6906, "ĠPost": 6907, "Ġbackwards": 6908, "equ": 6909, "Ġjoking": 6910, "Ġutter": 6911, "adays": 6912, "Ġcorporate": 6913, "ĠBell": 6914, "Ġdescription": 6915, "ctor": 6916, "Ġhousing": 6917, "Ġdoors": 6918, "licit": 6919, "ĠMel": 6920, "inds": 6921, "ĠPvP": 6922, "itt": 6923, "ĠHR": 6924, "Ġswap": 6925, "ĠRB": 6926, "Ġspray": 6927, "reme": 6928, "Ġ27": 6929, "imm": 6930, "ĠJones": 6931, "maybe": 6932, "Ġ2014": 6933, "ĠFree": 6934, "Ġabortion": 6935, "Ġnative": 6936, "Ġpays": 6937, "Ġexpress": 6938, "ĠBL": 6939, "attle": 6940, "Ġcomprom": 6941, "cs": 6942, "Ġrely": 6943, "Ġdisease": 6944, "Ġ2017": 6945, "Ġattend": 6946, "Ġstomach": 6947, "Ġlogical": 6948, "Ġguild": 6949, "ĠHello": 6950, "Ġpayment": 6951, "hab": 6952, "alaxy": 6953, "Ġloop": 6954, "Ġpainful": 6955, "Ġincorrect": 6956, "Ġshadow": 6957, "Ġbreast": 6958, "Ġintelligent": 6959, "Ġjungle": 6960, "ĠChicago": 6961, "known": 6962, "Ġforth": 6963, "This": 6964, "omed": 6965, "ĠThings": 6966, "season": 6967, "Ġvehicles": 6968, "Ġrandomly": 6969, "osis": 6970, "Ġinsan": 6971, "ett": 6972, "uting": 6973, "Ġsexy": 6974, "ĠRom": 6975, "ku": 6976, "Ġdelicious": 6977, "erve": 6978, "ĠIG": 6979, "Ġcleaning": 6980, "Ġentry": 6981, "arden": 6982, "Ġrip": 6983, "ĠCAN": 6984, "Ġstorage": 6985, "ĠDPS": 6986, "Ġsurely": 6987, "Ġdeliver": 6988, "sm": 6989, "Ġshocked": 6990, "ĠWE": 6991, "Ġswitched": 6992, "Ġcontrovers": 6993, "Ġmonsters": 6994, "ĠDE": 6995, "Ġbelieved": 6996, "Ġwitness": 6997, "Ġroomm": 6998, "ĠDel": 6999, "Ġalien": 7000, "Ġliquid": 7001, "ano": 7002, "ĠFC": 7003, "Ġbasketball": 7004, "ĠSony": 7005, "Ġjerk": 7006, "Ġyoure": 7007, "Ġincludes": 7008, "power": 7009, "ĠMike": 7010, "Ġexciting": 7011, "Ġfought": 7012, "Ġnerv": 7013, "Ġmentally": 7014, "Ġsorts": 7015, "Ġarticles": 7016, "ĠEh": 7017, "Ġwre": 7018, "ĠHel": 7019, "Ġhabit": 7020, "Ġlibrary": 7021, "adium": 7022, "ĠTre": 7023, "ighters": 7024, "Ġdeny": 7025, "iller": 7026, "UR": 7027, "ether": 7028, "Ġchecks": 7029, "Ġmultiplayer": 7030, "ĠDepends": 7031, "Ġpunishment": 7032, "ĠFar": 7033, "ĠBeen": 7034, "Ġselfish": 7035, "really": 7036, "sl": 7037, "bell": 7038, "ocolate": 7039, "Ġcommunication": 7040, "Ġdeleted": 7041, "Ġcircumstances": 7042, "ĠLOT": 7043, "pan": 7044, "Ġrealise": 7045, "Ġmechanic": 7046, "Ġfighter": 7047, "Ġsubmit": 7048, "ipes": 7049, "Ġultimate": 7050, "ĠIndia": 7051, "**.": 7052, "Ġfart": 7053, "Ġodds": 7054, "Ġsucked": 7055, "ĠBow": 7056, "sk": 7057, "fting": 7058, "Ġrepair": 7059, "Ġattached": 7060, "Ġfruit": 7061, "Ġtail": 7062, "pol": 7063, "itz": 7064, "respect": 7065, "Ġwasted": 7066, "Ġattacked": 7067, "Ġmedi": 7068, "Ġexpectations": 7069, "Ġguitar": 7070, "Ġgods": 7071, "ĠEA": 7072, "istol": 7073, "ĠAtt": 7074, "Ġrefused": 7075, "outhern": 7076, "ĠVer": 7077, "istent": 7078, "Ġarrested": 7079, "org": 7080, "inals": 7081, "Ġpros": 7082, "Ġ`": 7083, "Ġfacebook": 7084, "ford": 7085, "aby": 7086, "name": 7087, "iser": 7088, "mind": 7089, "Ġexplaining": 7090, "Ġholds": 7091, "ĠHalo": 7092, "Ġcred": 7093, "24": 7094, "Ġcontest": 7095, "Ġreasoning": 7096, "osexual": 7097, "Ġyea": 7098, "istry": 7099, "Ġannoyed": 7100, "Ġexisted": 7101, "ĠBUT": 7102, "ĠSeason": 7103, "Ġtack": 7104, "inn": 7105, "Ġcarrying": 7106, "Ġcreative": 7107, "Ġhighlight": 7108, "Ġcris": 7109, "Ġive": 7110, "Ġvegan": 7111, ".,": 7112, "Ġsweat": 7113, "Ġquot": 7114, "ĠCurrent": 7115, "Ġindependent": 7116, "ĠBesides": 7117, "Ġprote": 7118, "Ġintelligence": 7119, "Ġsauce": 7120, "fect": 7121, "gic": 7122, "lord": 7123, "Ġburning": 7124, "Ġven": 7125, "Ġaddict": 7126, "Ġclaiming": 7127, "ĠMP": 7128, "nic": 7129, "Ġdepressed": 7130, "Ġvacc": 7131, "ĠCA": 7132, "ĠMur": 7133, "ĠSqu": 7134, "place": 7135, "Ġrang": 7136, "Ġdirt": 7137, "ĠLondon": 7138, "Ġpriority": 7139, "ĠBob": 7140, "Ġpathetic": 7141, "oken": 7142, "Ġmarry": 7143, "Ġpodcast": 7144, "Ġwhereas": 7145, "Ġinstruct": 7146, "eem": 7147, "Ġhotel": 7148, "Ġhockey": 7149, "cont": 7150, "ĠSmith": 7151, "ĠBuy": 7152, "Ġnail": 7153, "Ġsustain": 7154, "Ġholes": 7155, "Ġaffected": 7156, "ships": 7157, "ĠDun": 7158, "Ġbump": 7159, "Ġlore": 7160, "Ġcultural": 7161, "PA": 7162, "Ġunw": 7163, "Ġignoring": 7164, "Ġmanner": 7165, "Ġtrap": 7166, "wl": 7167, "Ġintense": 7168, "isl": 7169, "evit": 7170, "Ġvent": 7171, "reement": 7172, "Ġbegan": 7173, "ĠOR": 7174, "Ġbackup": 7175, "enders": 7176, "Ġengineering": 7177, "!?": 7178, "gl": 7179, "ĠTeam": 7180, "Ġsnap": 7181, "Ġsimpl": 7182, "Ġremem": 7183, "Ġdownt": 7184, "away": 7185, "een": 7186, "ĠFUCKING": 7187, "zil": 7188, "):": 7189, "Ġadvanced": 7190, "Ġpink": 7191, "Ġunnecessary": 7192, "oub": 7193, "Ġnervous": 7194, "Ġemergency": 7195, "ĠTIL": 7196, "ĠDev": 7197, "Ġanalog": 7198, "Ġshout": 7199, "amsung": 7200, "Ġgoddamn": 7201, "ĠSK": 7202, "Ġvag": 7203, "Ġprivile": 7204, "why": 7205, "ĠNS": 7206, "Ġexam": 7207, "ĠHaw": 7208, "ĠBull": 7209, "especially": 7210, "ulf": 7211, "ĠGOP": 7212, "Ġspring": 7213, "Ġscar": 7214, "Ġshopping": 7215, "Ġbite": 7216, "Ġlinks": 7217, "Ġlifest": 7218, "Ġinjured": 7219, "Ġconspiracy": 7220, "And": 7221, "eter": 7222, "osen": 7223, "Ġkidding": 7224, "ouch": 7225, "ĠAv": 7226, "Ġsoldiers": 7227, "Ġblown": 7228, "CE": 7229, "olves": 7230, "ena": 7231, "Ġmemes": 7232, "Ġsadly": 7233, "Ġages": 7234, "Ġpu": 7235, "GO": 7236, "Ġmakeup": 7237, "Ġwra": 7238, "iel": 7239, "Ġwouldnt": 7240, "Ġaccomplish": 7241, "ucky": 7242, "ĠLS": 7243, "class": 7244, "Ġraces": 7245, "Ġcoup": 7246, "Ġbusinesses": 7247, "Ġlift": 7248, "aco": 7249, "ĠRon": 7250, "ĠDestiny": 7251, "ĠCongrats": 7252, "ĠIce": 7253, "ĠWat": 7254, "Ġbehavi": 7255, "Ġplants": 7256, "Ġspl": 7257, "Ġseed": 7258, "Ġcrimes": 7259, "Ġatheist": 7260, "Ġelected": 7261, "Ġimpressed": 7262, "Ġobjective": 7263, "Ġpace": 7264, "umble": 7265, "Ġslower": 7266, "Ġ2018": 7267, "Ġcentral": 7268, "ĠTrans": 7269, "Ġpermanent": 7270, "ĠGra": 7271, "Ġchemical": 7272, "ĠSal": 7273, "Ġ***": 7274, "Ġreached": 7275, "ĠTD": 7276, "Ġoblig": 7277, "Ġarch": 7278, "cho": 7279, "Ġdu": 7280, "Ġpitch": 7281, "ĠTwitter": 7282, "cean": 7283, "Ġemotions": 7284, "onym": 7285, "illion": 7286, "ĠInc": 7287, "Ġepic": 7288, "Ġpurs": 7289, "Ġgather": 7290, "Ġrul": 7291, "Ġyard": 7292, "ĠEp": 7293, "Ġinterpret": 7294, "Ġtwitter": 7295, "Ġcompens": 7296, "Ġdiscovered": 7297, "ĠHam": 7298, "Ġshel": 7299, "Ġreports": 7300, "rick": 7301, "Ġsna": 7302, "Ġinevit": 7303, "Ġquests": 7304, "ography": 7305, "Ġpad": 7306, "ĠFind": 7307, "Ġcomparing": 7308, "Ġcigare": 7309, "ĠBC": 7310, "chers": 7311, "ĠAF": 7312, "Ġrevenue": 7313, "Ġillness": 7314, "Ġinherent": 7315, "ĠSpec": 7316, "Ġadapt": 7317, "ĠSaturday": 7318, "ĠTB": 7319, "Ġconsent": 7320, "Ġsummon": 7321, "Ġcuz": 7322, "imp": 7323, "lessly": 7324, "Ġstays": 7325, "Ġremoving": 7326, "parent": 7327, "Ġusage": 7328, "Ġvacation": 7329, "Ġnewer": 7330, "Ġlanguages": 7331, "Ġclosest": 7332, "ĠNote": 7333, "Ġlaughed": 7334, "ĠGrand": 7335, "Ġhi": 7336, "Ġstreaming": 7337, "Ġagent": 7338, "Ġaccent": 7339, "Ġapplies": 7340, "ĠWTF": 7341, "ĠNH": 7342, "Ġfancy": 7343, "itors": 7344, "iki": 7345, "Ġcapacity": 7346, "ĠKnight": 7347, "Ġnaked": 7348, "Ġfuckin": 7349, "standing": 7350, "Ġassass": 7351, "Ġannounced": 7352, "Ġgall": 7353, "Ġapple": 7354, "ffect": 7355, "Ġjunk": 7356, "Ġboots": 7357, "ĠFair": 7358, "ĠTal": 7359, "ĠImp": 7360, "install": 7361, "ĠHarry": 7362, "Ġforcing": 7363, "Ġanger": 7364, "Ġdelivery": 7365, "Ġsymbol": 7366, "ĠLa": 7367, "Ġpremium": 7368, "Ġsensitive": 7369, "Ġmessed": 7370, "haw": 7371, "Ġsucceed": 7372, "duct": 7373, "fun": 7374, "ĠHor": 7375, "ĠDavid": 7376, "ĠFPS": 7377, "bad": 7378, "ores": 7379, "ĠSupp": 7380, "ĠREALLY": 7381, "Ġbuildings": 7382, "ï¸": 7383, "Ġdiamond": 7384, "oul": 7385, "ĠChris": 7386, "Ġdrawing": 7387, "Ġapplication": 7388, "Ġconscious": 7389, "ï¸ı": 7390, "ĠBoy": 7391, "Ġcontinues": 7392, "Ġlesson": 7393, "mat": 7394, "lder": 7395, "utions": 7396, "Ġcens": 7397, "Ġshoulder": 7398, "Ġfrank": 7399, "Ġtil": 7400, "ĠChristians": 7401, "Ġsooner": 7402, "Ġappoint": 7403, "roat": 7404, "Ġsche": 7405, "oston": 7406, "weet": 7407, "Ġdecre": 7408, "enance": 7409, "ccer": 7410, "ĠMass": 7411, "Ġattracted": 7412, "ras": 7413, "ĠQuest": 7414, "Ġsupported": 7415, "check": 7416, "hi": 7417, "Ġtweet": 7418, "olen": 7419, "Ġbosses": 7420, "Ġsir": 7421, "Ġket": 7422, "illiant": 7423, "ĠKen": 7424, "Ġasleep": 7425, "erent": 7426, "Ġbelieves": 7427, "Ġhorror": 7428, "Ġvap": 7429, "oor": 7430, "Ġhunt": 7431, "bits": 7432, "ĠSuch": 7433, "Ġcharging": 7434, "ĠIF": 7435, "Ġcaps": 7436, "Ġdeveloper": 7437, "employ": 7438, "Ġconclusion": 7439, "Ġteammates": 7440, "osition": 7441, "Ġcompon": 7442, "Ġ..": 7443, "ĠUSB": 7444, "ĠWelcome": 7445, "ĠSpanish": 7446, "Ġcomputers": 7447, "ĠUgh": 7448, "hhhh": 7449, "actions": 7450, "Ġharsh": 7451, "Ġpresence": 7452, "Ġsi": 7453, "lings": 7454, "400": 7455, "ijuana": 7456, "Ġpussy": 7457, "Ġinternal": 7458, "Ġignored": 7459, "Ġmentality": 7460, "edi": 7461, "ĠOC": 7462, "Ġsharp": 7463, "Ġhumanity": 7464, "Ġensure": 7465, "istan": 7466, "law": 7467, "Ġelements": 7468, "Ġidentify": 7469, "Ġpenalty": 7470, "Ġ^^^": 7471, "ĠAsk": 7472, "Ġmaterials": 7473, "Ġpresc": 7474, "ĠMean": 7475, "ials": 7476, "Ġlimits": 7477, "ooo": 7478, "ĠBlizzard": 7479, "ĠSpace": 7480, "Ġlowest": 7481, "Ġdreams": 7482, "Ġincident": 7483, "Ġclothing": 7484, "aled": 7485, "Ġhomes": 7486, "Ġdual": 7487, "Ġpreviously": 7488, "ifice": 7489, "ĠGun": 7490, "ĠLaw": 7491, "Ġwine": 7492, "ĠBR": 7493, "ĠAtl": 7494, "TER": 7495, "osing": 7496, "Ġ120": 7497, "Ġisland": 7498, "ĠMonday": 7499, "Ġnegot": 7500, "Ġcandy": 7501, "chan": 7502, "Ġphysics": 7503, "ĠNYC": 7504, "ĠOct": 7505, "Ġbond": 7506, "Ġexcess": 7507, "Ġpasses": 7508, "erable": 7509, "Ġclip": 7510, "ĠEV": 7511, "ĠMuslims": 7512, "Ġsty": 7513, "ãģ": 7514, "ĠWall": 7515, "Ġstrongly": 7516, "keep": 7517, "NN": 7518, "gment": 7519, "Ġlob": 7520, "ola": 7521, "ĠAMA": 7522, "Ġswitching": 7523, "Ġmarijuana": 7524, "ront": 7525, "Ġcrypt": 7526, "Ġstealing": 7527, "ĠFed": 7528, "Ġpages": 7529, "Ġgolden": 7530, "Ġquant": 7531, "Ġhardest": 7532, "Ġhobby": 7533, "omy": 7534, "Ġdynam": 7535, "Ġoutcome": 7536, "eez": 7537, "unte": 7538, "Ġdps": 7539, "ĠEvent": 7540, "ointing": 7541, "oral": 7542, "Ġbell": 7543, "essions": 7544, "ige": 7545, "Ġbom": 7546, "ĠWii": 7547, "Ġresponses": 7548, "ĠNeed": 7549, "iveness": 7550, "Ġsea": 7551, "âĢĶ": 7552, "ĠFunny": 7553, "etime": 7554, "aine": 7555, "Ġdetermine": 7556, "rive": 7557, "ĠDonald": 7558, "encies": 7559, "Ġconcent": 7560, "van": 7561, "Ġclubs": 7562, "Ġseats": 7563, "eared": 7564, "Ġbridge": 7565, "Ġroles": 7566, "ĠWere": 7567, "ĠLegend": 7568, "ĠRoman": 7569, "Ġinsist": 7570, "Ġclimate": 7571, "Ġinvolve": 7572, "ĠSay": 7573, "mate": 7574, "ĠForce": 7575, "ĠChamp": 7576, "liv": 7577, "Ġminds": 7578, "Ġalleg": 7579, "ĠConsidering": 7580, "ĠISIS": 7581, "Ġpurely": 7582, "Ġfunds": 7583, "car": 7584, "Ġliking": 7585, "Ġbleed": 7586, "Ġvul": 7587, "Ġmaintenance": 7588, "Ġtraded": 7589, "Ġcategory": 7590, "nda": 7591, "ĠSF": 7592, "Ġfinds": 7593, "Ġmemories": 7594, "Ġlinked": 7595, "Ġtastes": 7596, "ami": 7597, "aborate": 7598, "Ġpropaganda": 7599, "Ġrecover": 7600, "ĠMaster": 7601, "Ġtracks": 7602, "ĠBal": 7603, "world": 7604, "Ġdance": 7605, "ĠWoW": 7606, "Ġinvestigation": 7607, "Ġpractically": 7608, "Ġgate": 7609, "Ġassociated": 7610, "Ġmood": 7611, "aka": 7612, "Ġ^^^^": 7613, "asks": 7614, "wal": 7615, "ĠMich": 7616, "ĠBoston": 7617, "Ġfactory": 7618, "Ġelectron": 7619, "pay": 7620, "cluding": 7621, "Ġmins": 7622, "Ġcurrency": 7623, "Ġarena": 7624, "ifies": 7625, "Ġdrove": 7626, "ĠHaven": 7627, "Ġdelus": 7628, "ĠRyan": 7629, "ogs": 7630, "Ġ199": 7631, "ĠFallout": 7632, "Ġconcerns": 7633, "Ġstraw": 7634, "Ġincreases": 7635, "ĠWhatever": 7636, "Ġhired": 7637, "Ġsuggesting": 7638, "Ġcontrols": 7639, "Ġapologize": 7640, "Ġbreakfast": 7641, "Ġfunding": 7642, "Ġduty": 7643, "Ġartists": 7644, "Ġvague": 7645, "ĠSum": 7646, "ĠClass": 7647, "Ġfaces": 7648, "Ġuncle": 7649, "Ġopponents": 7650, "Ġestablish": 7651, "lling": 7652, "Ġrefund": 7653, "Ġcunt": 7654, "ega": 7655, "Ġrant": 7656, "Ġchip": 7657, "Ġrelative": 7658, "ette": 7659, "Ġblew": 7660, "Ġbeef": 7661, "Ġforms": 7662, "***": 7663, "ias": 7664, "ĠWr": 7665, "onto": 7666, "Ġjoy": 7667, "Ġacid": 7668, "Ġmyster": 7669, "Ġwelf": 7670, "Ġdriven": 7671, "mod": 7672, "Ġbaseball": 7673, "Ġwha": 7674, "agues": 7675, "Ġmirror": 7676, "Ġnasty": 7677, "Ġproced": 7678, "vi": 7679, "Ġinsight": 7680, "Ġwelfare": 7681, "Ġpilot": 7682, "isters": 7683, "Ġlatter": 7684, "iency": 7685, "Ġshotgun": 7686, "ammar": 7687, "Ġdozen": 7688, "Ġunion": 7689, "Ġcollap": 7690, "pu": 7691, "He": 7692, "Ġcapitalism": 7693, "ĠProt": 7694, "vp": 7695, "Ġho": 7696, "Ġmotion": 7697, "edit": 7698, "irc": 7699, "Ġcompat": 7700, "Ġfacing": 7701, "Ġforum": 7702, "Ġadmitted": 7703, "ĠAnge": 7704, "Ġposter": 7705, "ifications": 7706, "Ġjournal": 7707, "......": 7708, "Ġpassword": 7709, "Ġreplies": 7710, "Ġwipe": 7711, "hington": 7712, "Ġdiscrim": 7713, "Ġexplore": 7714, "omin": 7715, "works": 7716, "ĠKinda": 7717, "ĠHot": 7718, "Ġaspects": 7719, "ĠMcDonald": 7720, "ĠJud": 7721, "iform": 7722, "Ġbrief": 7723, "Ġrecords": 7724, "Ġneat": 7725, "Ġbeaten": 7726, "ĠShow": 7727, "Ġremaining": 7728, "asant": 7729, "Ġhungry": 7730, "Ġhill": 7731, "ĠCry": 7732, "Ġknee": 7733, "ĠGeorge": 7734, "Ġbubble": 7735, "Ġoutput": 7736, "ĠDad": 7737, "Ġdemocracy": 7738, "nb": 7739, "itute": 7740, "pack": 7741, "ructure": 7742, "Ġactor": 7743, "was": 7744, "Ġshr": 7745, "char": 7746, "ĠEach": 7747, "kings": 7748, "rors": 7749, "ĠMagic": 7750, "Ġramp": 7751, "Ġwasnt": 7752, "Ġlegisl": 7753, "âĢĿ.": 7754, "level": 7755, "Ġobtain": 7756, "Ġpeop": 7757, "Ġgeneric": 7758, "Ġanimation": 7759, "Ġpregnancy": 7760, "Ġom": 7761, "Ġrecommended": 7762, "ĠAA": 7763, "Ġchocolate": 7764, "iosity": 7765, "Ġol": 7766, "inks": 7767, "ĠRegardless": 7768, "Ġyards": 7769, "Ġblade": 7770, "ĠMexico": 7771, "Ġweigh": 7772, "ĠPot": 7773, "ĠMatt": 7774, "Ġminimal": 7775, "Ġhandled": 7776, "oma": 7777, "Ġanytime": 7778, "Ġ95": 7779, "orders": 7780, "ĠCru": 7781, "Ġdismiss": 7782, "Ġnowadays": 7783, "ĠBush": 7784, "ĠSpr": 7785, "Ġ36": 7786, "oster": 7787, "Ġpartners": 7788, "ĠLI": 7789, "ifi": 7790, "Ġears": 7791, "ĠHU": 7792, "Ġengineer": 7793, "Ġacadem": 7794, "yal": 7795, "Ġcolour": 7796, "Ġrequirements": 7797, "ĠUh": 7798, "Ġlargely": 7799, "Ġprospect": 7800, "Ġblah": 7801, "Ġdeserved": 7802, "Ġhating": 7803, "ĠTitan": 7804, "cil": 7805, "ĠTSM": 7806, "Ġtiming": 7807, "Ġwhom": 7808, "Ġbiased": 7809, "Ġcowork": 7810, "iating": 7811, "Ġtempor": 7812, "pow": 7813, "Ġgro": 7814, "ĠDam": 7815, "Ġtask": 7816, "Ġdram": 7817, "Ġjoined": 7818, "ĠTar": 7819, "eeee": 7820, "somet": 7821, "ĠPO": 7822, "Ġprotein": 7823, "popular": 7824, "when": 7825, "Ġanswered": 7826, "Ġjung": 7827, "Ġqueue": 7828, "based": 7829, "Ġsalty": 7830, "Ġprogramming": 7831, "ĠMeanwhile": 7832, "Ġstarter": 7833, "Ġintroduced": 7834, "Ġpractical": 7835, "Ġ2012": 7836, "Ġappearance": 7837, "ĠScott": 7838, "Ġstadium": 7839, "cut": 7840, "Ġlanes": 7841, "Ġlean": 7842, "ĠHappy": 7843, "belie": 7844, "Ġstolen": 7845, "ĠLou": 7846, "Ġnar": 7847, "ĠHero": 7848, "ĠSadly": 7849, "Ġalpha": 7850, "Ġmild": 7851, "Ġmanufacture": 7852, "Ġdisrespect": 7853, "Ġ250": 7854, "Ġsecure": 7855, "nels": 7856, "Ġchips": 7857, "vision": 7858, "bron": 7859, "33": 7860, "Ġratio": 7861, "Ġstranger": 7862, "ĠMars": 7863, "agram": 7864, "Ġpreference": 7865, "Ġfps": 7866, "ĠCatholic": 7867, "ĠPA": 7868, "ĠRod": 7869, "]]": 7870, "ĠWhether": 7871, "Ġcounts": 7872, "Ġmisunder": 7873, "Ġspare": 7874, "Ġreputation": 7875, "Ġweakness": 7876, "Ġcampus": 7877, "Ġbitter": 7878, "ĠYa": 7879, "raq": 7880, "ĠToday": 7881, "soever": 7882, "Ġtends": 7883, "Ġstring": 7884, "ĠðŁĺĤ": 7885, "Ġpoo": 7886, "Ġtracking": 7887, "unity": 7888, "Ġinstr": 7889, "ĠPri": 7890, "Ġanalysis": 7891, "ecraft": 7892, "ĠDA": 7893, "Ã¤": 7894, "Ġbadass": 7895, "Ġpanic": 7896, "ĠAMD": 7897, "ĠSouls": 7898, "ĠKorean": 7899, "inem": 7900, "DD": 7901, "atural": 7902, "icked": 7903, "osphere": 7904, "Ġhiding": 7905, "Ġimprovement": 7906, "ĠMont": 7907, "ĠAdam": 7908, "Ġevolution": 7909, "Ġconce": 7910, "Ġestablished": 7911, "Ġsignal": 7912, "Ġlargest": 7913, "Ġautomatic": 7914, "Ġbattles": 7915, "senal": 7916, "Ġseek": 7917, "Ġwasting": 7918, "uls": 7919, "Ġbc": 7920, "Ġsavings": 7921, "Ġsouls": 7922, "Ġscheme": 7923, "ĠGuys": 7924, "Ġthor": 7925, "Ġtires": 7926, "ĠSamsung": 7927, "izon": 7928, "Ġnights": 7929, "bies": 7930, "Ġwhatsoever": 7931, "Ġauthority": 7932, "itate": 7933, "Ġfactors": 7934, "Ġdecides": 7935, "ĠBitcoin": 7936, "Ġpurple": 7937, "Ġfoods": 7938, "ĠFO": 7939, "Ġcitizen": 7940, "Ġlone": 7941, "Ġbeats": 7942, "quest": 7943, "Ġaid": 7944, "Ġbits": 7945, "berg": 7946, "Ġblat": 7947, "ghter": 7948, "ĠCy": 7949, "Ġupvotes": 7950, "Ġ%": 7951, "Ġ2013": 7952, "nov": 7953, "Ġearned": 7954, "Ġclaimed": 7955, "rocery": 7956, "making": 7957, "Ġmountain": 7958, "olar": 7959, "ollow": 7960, "Ġcomics": 7961, "ENT": 7962, "Ġmasturb": 7963, "Ġhopes": 7964, "estic": 7965, "through": 7966, "Ġsymptoms": 7967, "orrow": 7968, "Ġvib": 7969, "ilst": 7970, "Ġdates": 7971, "ĠFeel": 7972, "ĠIre": 7973, "Ġencounter": 7974, "Ġchoosing": 7975, "ĠRick": 7976, "xx": 7977, "style": 7978, "Ġnightmare": 7979, "Ġphrase": 7980, "Ġcentury": 7981, "Ġmelt": 7982, "Ġrocket": 7983, "ĠMess": 7984, "Ġgreatly": 7985, "Ġcrappy": 7986, "ĠSing": 7987, "sea": 7988, "Ġconsoles": 7989, "Ġraped": 7990, "ĠCongress": 7991, "school": 7992, "Ġbitcoin": 7993, "Ġregards": 7994, "agers": 7995, "Ġdepos": 7996, "ĠWashington": 7997, "Ġnations": 7998, "Ġlip": 7999, "ocre": 8000, "Ġcousin": 8001, "ĠTW": 8002, "Ġworker": 8003, "__FP16_PAD_0__": 8004, "__FP16_PAD_1__": 8005, "__FP16_PAD_2__": 8006, "__FP16_PAD_3__": 8007}